{"<pad>":0,"<sos>":1,"<eos>":2,"!":3,"\"":4,"#":5,"$":6,"%":7,"&":8,"'":9,"(":10,")":11,",":12,"-":13,".":14,"/":15,"0":16,"1":17,"2":18,"3":19,"4":20,"5":21,"6":22,"7":23,"8":24,"9":25,":":26,";":27,"=":28,"?":29,"@":30,"A":31,"B":32,"C":33,"D":34,"E":35,"F":36,"G":37,"H":38,"I":39,"J":40,"K":41,"L":42,"M":43,"N":44,"O":45,"P":46,"Q":47,"R":48,"S":49,"T":50,"U":51,"V":52,"W":53,"X":54,"Y":55,"Z":56,"_":57,"`":58,"a":59,"b":60,"c":61,"d":62,"e":63,"f":64,"g":65,"h":66,"i":67,"j":68,"k":69,"l":70,"m":71,"n":72,"o":73,"p":74,"q":75,"r":76,"s":77,"t":78,"u":79,"v":80,"w":81,"x":82,"y":83,"z":84,"ß":85,"–":86,"‘":87,"’":88,"“":89,"”":90,"„":91,"s</w>":92,"g</w>":93,"n</w>":94,"t</w>":95,"r</w>":96,"l</w>":97,"e</w>":98,"O</w>":99,"o</w>":100,"d</w>":101,"a</w>":102,"h</w>":103,"m</w>":104,"y</w>":105,"G</w>":106,"b</w>":107,"i</w>":108,"z</w>":109,"k</w>":110,"0</w>":111,"-</w>":112,"A</w>":113,"f</w>":114,"x</w>":115,"u</w>":116,"w</w>":117,"D</w>":118,"c</w>":119,"ß</w>":120,"&</w>":121,"3</w>":122,"p</w>":123,"N</w>":124,"L</w>":125,"K</w>":126,"8</w>":127,"P</w>":128,"R</w>":129,"–</w>":130,"4</w>":131,"Y</w>":132,"5</w>":133,"v</w>":134,"T</w>":135,"Q</w>":136,"1</w>":137,"9</w>":138,"6</w>":139,"C</w>":140,"H</w>":141,"2</w>":142,"j</w>":143,"U</w>":144,"M</w>":145,"E</w>":146,"V</w>":147,"S</w>":148,"7</w>":149,"/</w>":150,"\"</w>":151,"(</w>":152,"W</w>":153,"_</w>":154,"F</w>":155,"q</w>":156,"’</w>":157,"“</w>":158,")</w>":159,":</w>":160,"$</w>":161,"!</w>":162,"%</w>":163,",</w>":164,"?</w>":165,"‘</w>":166,"@</w>":167,"'</w>":168,"#</w>":169,"X</w>":170,"=</w>":171,"I</w>":172,"`</w>":173,";</w>":174,"B</w>":175,"J</w>":176,".</w>":177,"„</w>":178,"”</w>":179,"in":180,"en</w>":181,"in</w>":182,"er</w>":183,"an":184,"ein":185,"un":186,"ing</w>":187,"ch":188,"er":189,"ar":190,"au":191,"it":192,"em</w>":193,"an</w>":194,"st":195,"re":196,"th":197,"al":198,"ro":199,"ra":200,"en":201,"einem</w>":202,"on</w>":203,"el":204,"Ein</w>":205,"und</w>":206,"la":207,"man</w>":208,"sch":209,"and</w>":210,"mi":211,"we":212,"is</w>":213,"es</w>":214,"Man":215,"le</w>":216,"the</w>":217,"or":218,"auf</w>":219,"mit</w>":220,"si":221,"on":222,"eh":223,"ch</w>":224,"ir":225,"Mann</w>":226,"der</w>":227,"at":228,"einer</w>":229,"be":230,"of</w>":231,"ck":232,"ine</w>":233,"ei":234,"wit":235,"with</w>":236,"ri":237,"ge</w>":238,"sp":239,"Eine</w>":240,"ol":241,"sh":242,"bl":243,"at</w>":244,"and":245,"bo":246,"ah":247,"ein</w>":248,"ge":249,"di":250,"wo":251,"et</w>":252,"ss":253,"lo":254,"ut":255,"sit":256,"ad":257,"ur":258,"do":259,"op":260,"ck</w>":261,"wh":262,"eine</w>":263,"et":264,"to</w>":265,"il":266,"St":267,"iel":268,"ung</w>":269,"ed</w>":270,"einen</w>":271,"rau</w>":272,"ten</w>":273,"Frau</w>":274,"all</w>":275,"li":276,"king</w>":277,"men</w>":278,"are</w>":279,"wo</w>":280,"or</w>":281,"wei</w>":282,"im</w>":283,"ru":284,"woman</w>":285,"gen</w>":286,"pla":287,"am":288,"ers":289,"ne":290,"die</w>":291,"kl":292,"den</w>":293,"de</w>":294,"gro":295,"chen</w>":296,"gt</w>":297,"as</w>":298,"irt</w>":299,"Sch":300,"eht</w>":301,"Zwei</w>":302,"eop":303,"eople</w>":304,"Two</w>":305,"ding</w>":306,"st</w>":307,"ter":308,"em":309,"ting</w>":310,"aring</w>":311,"ba":312,"spiel":313,"wal":314,"war":315,"le":316,"play":317,"auen</w>":318,"ahr":319,"up</w>":320,"pp":321,"sitz":322,"wearing</w>":323,"co":324,"ter</w>":325,"ti":326,"people</w>":327,"wn</w>":328,"ite</w>":329,"shirt</w>":330,"ts</w>":331,"bla":332,"to":333,"von</w>":334,"ft</w>":335,"Th":336,"wei":337,"um":338,"tra":339,"oung</w>":340,"sich</w>":341,"ta":342,"ren":343,"fro":344,"ar</w>":345,"red</w>":346,"dem</w>":347,"white</w>":348,"ver":349,"ben</w>":350,"ue</w>":351,"stand":352,"cht</w>":353,"Mad":354,"se</w>":355,"ss</w>":356,"ßen</w>":357,"Madchen</w>":358,"ball</w>":359,"gir":360,"ind</w>":361,"unge</w>":362,"hal":363,"stre":364,"ehen</w>":365,"young</w>":366,"run":367,"ub":368,"ile</w>":369,"oo":370,"wa":371,"ner</w>":372,"Pers":373,"ce</w>":374,"ma":375,"wat":376,"black</w>":377,"vor</w>":378,"de":379,"his</w>":380,"ers</w>":381,"ße</w>":382,"nt</w>":383,"while</w>":384,"ie":385,"zu</w>":386,"one</w>":387,"ul":388,"blue</w>":389,"schwar":390,"eines</w>":391,"ther</w>":392,"ih":393,"om":394,"sk":395,"steht</w>":396,"by</w>":397,"Stra":398,"boy</w>":399,"rin":400,"sitting</w>":401,"ppe</w>":402,"schen</w>":403,"hol":404,"fahr":405,"ou":406,"girl</w>":407,"ben":408,"ack":409,"dog</w>":410,"loo":411,"Manner</w>":412,"zu":413,"out":414,"ik":415,"sitzt</w>":416,"standing</w>":417,"Hund</w>":418,"ai":419,"all":420,"Ge":421,"playing</w>":422,"ass":423,"Junge</w>":424,"te</w>":425,"gra":426,"eid":427,"chil":428,"cro":429,"ere</w>":430,"side</w>":431,"schwarz":432,"bei</w>":433,"ic":434,"group</w>":435,"Men":436,"al</w>":437,"ger</w>":438,"her</w>":439,"um</w>":440,"Sp":441,"bu":442,"dre":443,"halt</w>":444,"ruppe</w>":445,"ahren":446,"street</w>":447,"ber":448,"ug":449,"lan":450,"am</w>":451,"wi":452,"Straße</w>":453,"ho":454,"down</w>":455,"ahrend</w>":456,"ach</w>":457,"se":458,"wahrend</w>":459,"ent":460,"for":461,"uh":462,"walking</w>":463,"po":464,"ree</w>":465,"eren</w>":466,"ds</w>":467,"ff":468,"Gruppe</w>":469,"ren</w>":470,"ert</w>":471,"spielt</w>":472,"Hem":473,"ern</w>":474,"front</w>":475,"other</w>":476,"auf":477,"gh":478,"air</w>":479,"onen</w>":480,"boar":481,"ks</w>":482,"it</w>":483,"holding</w>":484,"par":485,"gel":486,"pa":487,"itt":488,"uber</w>":489,"hat</w>":490,"Hemd</w>":491,"rauen</w>":492,"ni":493,"dur":494,"mo":495,"Kl":496,"Personen</w>":497,"gs</w>":498,"mm":499,"el</w>":500,"aus</w>":501,"ell":502,"das</w>":503,"gre":504,"no":505,"hin":506,"wor":507,"water</w>":508,"ist</w>":509,"blauen</w>":510,"ying</w>":511,"Le":512,"ver</w>":513,"Wass":514,"weißen</w>":515,"gu":516,"Kin":517,"thro":518,"men":519,"The</w>":520,"oran":521,"som":522,"rei":523,"nen</w>":524,"Frauen</w>":525,"amer":526,"far":527,"roten</w>":528,"bra":529,"car":530,"ad</w>":531,"ve</w>":532,"is":533,"neben</w>":534,"sprin":535,"Kind</w>":536,"stehen</w>":537,"Dre":538,"jum":539,"beit":540,"looking</w>":541,"An</w>":542,"he":543,"Menschen</w>":544,"gen":545,"green</w>":546,"fu":547,"ping</w>":548,"women</w>":549,"ittle</w>":550,"geht</w>":551,"spielen</w>":552,"for</w>":553,"bro":554,"durch</w>":555,"fahrt</w>":556,"kleid":557,"sitzen</w>":558,"low</w>":559,"ran":560,"walk</w>":561,"bri":562,"Drei</w>":563,"lar":564,"des</w>":565,"est":566,"cht":567,"outside</w>":568,"child</w>":569,"da":570,"rau":571,"Fahr":572,"ha":573,"ne</w>":574,"Three</w>":575,"ugh</w>":576,"tragt</w>":577,"little</w>":578,"tei":579,"ground</w>":580,"ki":581,"farben":582,"braun":583,"ling</w>":584,"ati":585,"Ba":586,"sm":587,"large</w>":588,"lie":589,"schau":590,"Person</w>":591,"grun":592,"ut</w>":593,"Wasser</w>":594,"jun":595,"lass":596,"sho":597,"through</w>":598,"ans</w>":599,"ball":600,"lu":601,"ute</w>":602,"ellow</w>":603,"con":604,"eu":605,"Kinder</w>":606,"sen</w>":607,"fa":608,"ph":609,"sno":610,"su":611,"ys</w>":612,"yellow</w>":613,"Ober":614,"amera</w>":615,"brown</w>":616,"dren</w>":617,"two</w>":618,"ehr":619,"lau":620,"ly</w>":621,"ier</w>":622,"ap":623,"unter</w>":624,"macht</w>":625,"sche</w>":626,"kleines</w>":627,"af":628,"elt</w>":629,"board</w>":630,"re</w>":631,"ger":632,"springt</w>":633,"yc":634,"back":635,"bau":636,"ig":637,"jack":638,"entlan":639,"bik":640,"schwarzen</w>":641,"blon":642,"from</w>":643,"Se":644,"eir</w>":645,"ong</w>":646,"their</w>":647,"Ho":648,"te":649,"Sh":650,"der":651,"dress":652,"rad</w>":653,"into</w>":654,"ght</w>":655,"pers":656,"arbeit":657,"ke</w>":658,"weiß":659,"ning</w>":660,"ate":661,"entlang</w>":662,"fi":663,"zwei</w>":664,"inter":665,"buil":666,"ckt</w>":667,"stru":668,"person</w>":669,"foo":670,"out</w>":671,"tor":672,"xt</w>":673,"utz":674,"sta":675,"kleiner</w>":676,"ele":677,"oc":678,"Fel":679,"ent</w>":680,"children</w>":681,"teil</w>":682,"ame</w>":683,"Ar":684,"Bau":685,"next</w>":686,"tur":687,"thing</w>":688,"pin":689,"Leute</w>":690,"vor":691,"ble</w>":692,"sc":693,"stand</w>":694,"Spiel":695,"wir":696,"lach":697,"Fu":698,"sa":699,"was</w>":700,"dressed</w>":701,"of":702,"vers":703,"small</w>":704,"form":705,"ls</w>":706,"crow":707,"je":708,"fen</w>":709,"ler</w>":710,"cken</w>":711,"gehen</w>":712,"clo":713,"ps</w>":714,"per":715,"Bo":716,"over</w>":717,"ving</w>":718,"ga":719,"mp":720,"aro":721,"her":722,"win":723,"ale</w>":724,"ie</w>":725,"zi":726,"sin":727,"building</w>":728,"mu":729,"ungen</w>":730,"dy</w>":731,"eit":732,"alter":733,"Hand":734,"etwas</w>":735,"wimm":736,"mar":737,"ssen</w>":738,"col":739,"us":740,"riding</w>":741,"running</w>":742,"ehrere</w>":743,"hel":744,"orange</w>":745,"seinem</w>":746,"People</w>":747,"eln</w>":748,"großen</w>":749,"near</w>":750,"gr":751,"Oberteil</w>":752,"ark</w>":753,"bli":754,"jacket</w>":755,"another</w>":756,"around</w>":757,"ple</w>":758,"grunen</w>":759,"orts</w>":760,"lle</w>":761,"itar":762,"fiel":763,"qu":764,"top</w>":765,"rand</w>":766,"side":767,"Gebau":768,"isch</w>":769,"kt</w>":770,"schaut</w>":771,"ching</w>":772,"Jack":773,"unter":774,"some</w>":775,"field</w>":776,"gekleid":777,"grund</w>":778,"Pf":779,"cti":780,"table</w>":781,"Kleid":782,"sidewalk</w>":783,"glass":784,"smi":785,"Hinter":786,"beh":787,"flo":788,"wing</w>":789,"ity</w>":790,"Lu":791,"glasses</w>":792,"Gra":793,"Kop":794,"beach</w>":795,"Hand</w>":796,"ging</w>":797,"ten":798,"blau":799,"rying</w>":800,"sur":801,"tal":802,"Mo":803,"crowd</w>":804,"hor":805,"ey</w>":806,"zen</w>":807,"Fuß":808,"cing</w>":809,"junge</w>":810,"Mehrere</w>":811,"lauft</w>":812,"pink</w>":813,"na":814,"off":815,"stands</w>":816,"den":817,"way</w>":818,"om</w>":819,"Frei":820,"ander</w>":821,"farbenen</w>":822,"schen":823,"sits</w>":824,"fur</w>":825,"phone</w>":826,"stu":827,"jumping</w>":828,"sind</w>":829,"Der</w>":830,"Sk":831,"behind</w>":832,"ank</w>":833,"bike</w>":834,"sen":835,"dd":836,"be</w>":837,"ool</w>":838,"Fahrrad</w>":839,"Asi":840,"pic":841,"some":842,"Hintergrund</w>":843,"Ha":844,"ca":845,"snow</w>":846,"Jungen</w>":847,"vi":848,"cke</w>":849,"Jacke</w>":850,"dan":851,"Ball</w>":852,"its</w>":853,"grass</w>":854,"ture</w>":855,"Luft</w>":856,"ches</w>":857,"Freien</w>":858,"hair</w>":859,"che</w>":860,"Strand</w>":861,"nen":862,"ahe</w>":863,"fo":864,"cks</w>":865,"anderen</w>":866,"background</w>":867,"Kleidung</w>":868,"les</w>":869,"zei":870,"sti":871,"weg</w>":872,"ycle</w>":873,"Shirt</w>":874,"Hun":875,"gelben</w>":876,"man":877,"bt</w>":878,"schla":879,"ild</w>":880,"Schne":881,"wer":882,"junger</w>":883,"ded</w>":884,"gekleidet":885,"aufen</w>":886,"bre":887,"fin":888,"aus":889,"park</w>":890,"off</w>":891,"read":892,"sket":893,"form</w>":894,"unta":895,"Man</w>":896,"tri":897,"cer</w>":898,"city</w>":899,"stei":900,"bi":901,"vol":902,"our</w>":903,"hand":904,"zeu":905,"ari":906,"sam":907,"halten</w>":908,"hinter</w>":909,"spieler</w>":910,"player</w>":911,"girls</w>":912,"len</w>":913,"nach</w>":914,"ating</w>":915,"amp":916,"als</w>":917,"bar":918,"looks</w>":919,"dress</w>":920,"Fo":921,"asi":922,"bic":923,"ves</w>":924,"wall</w>":925,"ko":926,"ard</w>":927,"cou":928,"Son":929,"andere</w>":930,"dogs</w>":931,"Menschen":932,"An":933,"Hut</w>":934,"woo":935,"veral</w>":936,"sun":937,"uni":938,"that</w>":939,"gel</w>":940,"schwarzer</w>":941,"Gebaude</w>":942,"Tisch</w>":943,"cli":944,"ster</w>":945,"tem</w>":946,"dun":947,"ges</w>":948,"camera</w>":949,"boo":950,"perform":951,"menge</w>":952,"Ta":953,"tball</w>":954,"sie</w>":955,"zug</w>":956,"auran":957,"wird</w>":958,"pro":959,"uber":960,"Bu":961,"Nahe</w>":962,"fla":963,"ateboard</w>":964,"talking</w>":965,"fe":966,"hil":967,"scha":968,"ade</w>":969,"something</w>":970,"sehen</w>":971,"beim</w>":972,"boys</w>":973,"Au":974,"go":975,"tre":976,"stri":977,"kleine</w>":978,"old</w>":979,"kleinen</w>":980,"fahrer</w>":981,"older</w>":982,"occer</w>":983,"Gitar":984,"fen":985,"lin":986,"he</w>":987,"itar</w>":988,"jo":989,"einander</w>":990,"walks</w>":991,"weißer</w>":992,"Menschenmenge</w>":993,"ani":994,"along</w>":995,"cross</w>":996,"Geh":997,"han":998,"Kamera</w>":999,"pan":1000,"pre":1001,"guitar</w>":1002,"cher</w>":1003,"working</w>":1004,"play</w>":1005,"lady</w>":1006,"toge":1007,"soccer</w>":1008,"blond</w>":1009,"together</w>":1010,"Gras</w>":1011,"vorbei</w>":1012,"me</w>":1013,"hoch</w>":1014,"food</w>":1015,"fri":1016,"rit":1017,"zeug</w>":1018,"Ber":1019,"gi":1020,"sig":1021,"Hunde</w>":1022,"mit":1023,"Ein":1024,"Boden</w>":1025,"aurant</w>":1026,"rennt</w>":1027,"gray</w>":1028,"pu":1029,"liegt</w>":1030,"rt</w>":1031,"tu":1032,"iel</w>":1033,"Schnee</w>":1034,"sing</w>":1035,"rest":1036,"ihr":1037,"orange":1038,"smiling</w>":1039,"bal":1040,"Stad":1041,"schaft</w>":1042,"Die</w>":1043,"chtet</w>":1044,"In":1045,"game</w>":1046,"has</w>":1047,"road</w>":1048,"hand</w>":1049,"me":1050,"dern</w>":1051,"swe":1052,"picture</w>":1053,"band</w>":1054,"Mann":1055,"sieht</w>":1056,"eid</w>":1057,"ihre</w>":1058,"Sonnen":1059,"per</w>":1060,"schie":1061,"schwarz</w>":1062,"ment</w>":1063,"ation</w>":1064,"ore</w>":1065,"plays</w>":1066,"suit</w>":1067,"zusam":1068,"Ru":1069,"fuh":1070,"Vier</w>":1071,"car</w>":1072,"abo":1073,"comp":1074,"Ro":1075,"ice</w>":1076,"schauen</w>":1077,"Asian</w>":1078,"etter":1079,"fahren</w>":1080,"det</w>":1081,"versu":1082,"amm":1083,"Gitarre</w>":1084,"ken</w>":1085,"ßen":1086,"sten</w>":1087,"holds</w>":1088,"Aut":1089,"ihren</w>":1090,"rol":1091,"Je":1092,"shing</w>":1093,"face</w>":1094,"spe":1095,"pi":1096,"shorts</w>":1097,"posi":1098,"work":1099,"zt</w>":1100,"ats</w>":1101,"ander":1102,"ction</w>":1103,"ate</w>":1104,"clim":1105,"Four</w>":1106,"ors</w>":1107,"bench</w>":1108,"strei":1109,"Kleid</w>":1110,"him</w>":1111,"pants</w>":1112,"che":1113,"sit</w>":1114,"Be":1115,"ab":1116,"pur":1117,"plat":1118,"braunen</w>":1119,"Bri":1120,"Zu":1121,"tan":1122,"lea":1123,"Te":1124,"Pfer":1125,"ddle</w>":1126,"room</w>":1127,"bei":1128,"brauner</w>":1129,"ze</w>":1130,"bun":1131,"stage</w>":1132,"steig</w>":1133,"Buh":1134,"Kun":1135,"Tri":1136,"iert</w>":1137,"Pa":1138,"nis</w>":1139,"ins</w>":1140,"lat":1141,"snow":1142,"fan":1143,"carrying</w>":1144,"untain</w>":1145,"shir":1146,"head</w>":1147,"schn":1148,"Motor":1149,"ets</w>":1150,"pain":1151,"ses</w>":1152,"sein</w>":1153,"baby</w>":1154,"pool</w>":1155,"back</w>":1156,"ful</w>":1157,"gan":1158,"alterer</w>":1159,"rock</w>":1160,"befin":1161,"raußen</w>":1162,"Feld</w>":1163,"zusammen</w>":1164,"bede":1165,"them</w>":1166,"ort</w>":1167,"seball</w>":1168,"couple</w>":1169,"ped</w>":1170,"sch</w>":1171,"Buhne</w>":1172,"scher</w>":1173,"ihr</w>":1174,"Straßen":1175,"bicycle</w>":1176,"outdo":1177,"Wo":1178,"draußen</w>":1179,"tree</w>":1180,"ons</w>":1181,"ette</w>":1182,"fem":1183,"mal":1184,"Ku":1185,"Re":1186,"ted</w>":1187,"wach":1188,"herum</w>":1189,"Brille</w>":1190,"Er":1191,"Par":1192,"ful":1193,"Several</w>":1194,"du":1195,"cha":1196,"sketball</w>":1197,"each</w>":1198,"arm":1199,"elle</w>":1200,"Bur":1201,"seine</w>":1202,"cre":1203,"drin":1204,"ty</w>":1205,"tel</w>":1206,"ballspieler</w>":1207,"jeans</w>":1208,"blickt</w>":1209,"Kopf</w>":1210,"ex":1211,"race</w>":1212,"ber</w>":1213,"long</w>":1214,"sle":1215,"taking</w>":1216,"day</w>":1217,"Gel":1218,"Mik":1219,"aren</w>":1220,"Ver":1221,"Gehweg</w>":1222,"Hol":1223,"kleidung</w>":1224,"ste":1225,"wachsen":1226,"fer</w>":1227,"are":1228,"togra":1229,"arbeitet</w>":1230,"asiati":1231,"Mikro":1232,"Mu":1233,"Park</w>":1234,"chten</w>":1235,"doing</w>":1236,"pe</w>":1237,"seinen</w>":1238,"boat</w>":1239,"dabei</w>":1240,"Foto</w>":1241,"dar":1242,"micro":1243,"lei":1244,"ater</w>":1245,"Schwimm":1246,"kor":1247,"Blu":1248,"Ren":1249,"across</w>":1250,"watching</w>":1251,"hell":1252,"brille</w>":1253,"tes</w>":1254,"ehen":1255,"Stadt</w>":1256,"dirt</w>":1257,"male</w>":1258,"wagen</w>":1259,"area</w>":1260,"Wa":1261,"hinunter</w>":1262,"slee":1263,"igen</w>":1264,"middle</w>":1265,"ateboar":1266,"musi":1267,"Jeans</w>":1268,"pho":1269,"Boo":1270,"Me":1271,"versucht</w>":1272,"kur":1273,"laufen</w>":1274,"sbe":1275,"tragen</w>":1276,"climb":1277,"dark</w>":1278,"cover":1279,"wie</w>":1280,"Baby</w>":1281,"Fi":1282,"kes</w>":1283,"jumps</w>":1284,"coat</w>":1285,"bedeck":1286,"Bank</w>":1287,"ob":1288,"helm":1289,"hands</w>":1290,"Wal":1291,"sh</w>":1292,"ril":1293,"ey":1294,"outh</w>":1295,"zeigt</w>":1296,"ire</w>":1297,"bereit":1298,"fon</w>":1299,"eing</w>":1300,"art</w>":1301,"ahn</w>":1302,"kletter":1303,"pol":1304,"Dame</w>":1305,"sto":1306,"motor":1307,"performing</w>":1308,"iti":1309,"Gesi":1310,"Kunst":1311,"Paar</w>":1312,"ort":1313,"ci":1314,"gestrei":1315,"who</w>":1316,"arbeiten</w>":1317,"Hel":1318,"eating</w>":1319,"ws</w>":1320,"Schla":1321,"machen</w>":1322,"gestreif":1323,"ry</w>":1324,"auti":1325,"große</w>":1326,"under</w>":1327,"stell":1328,"uten</w>":1329,"lichen</w>":1330,"lachelt</w>":1331,"female</w>":1332,"Essen</w>":1333,"being</w>":1334,"Mar":1335,"Mau":1336,"schaf":1337,"richt</w>":1338,"striped</w>":1339,"led</w>":1340,"att":1341,"baseball</w>":1342,"guy</w>":1343,"sign</w>":1344,"orangefarbenen</w>":1345,"Arbeit":1346,"tru":1347,"rad":1348,"using</w>":1349,"Burger":1350,"Ka":1351,"blo":1352,"utze</w>":1353,"ihrem</w>":1354,"stra":1355,"Stu":1356,"fer":1357,"ve":1358,"app":1359,"fit</w>":1360,"ige</w>":1361,"watch</w>":1362,"football</w>":1363,"Kopf":1364,"horse</w>":1365,"cor":1366,"dge</w>":1367,"ket</w>":1368,"ath</w>":1369,"ihm</w>":1370,"ean</w>":1371,"mouth</w>":1372,"tet</w>":1373,"store</w>":1374,"cking</w>":1375,"rennen</w>":1376,"uhl</w>":1377,"purple</w>":1378,"run</w>":1379,"mer":1380,"put":1381,"aired</w>":1382,"Skateboard</w>":1383,"ros":1384,"irs</w>":1385,"junges</w>":1386,"altere</w>":1387,"Fri":1388,"towar":1389,"Hose</w>":1390,"Burgersteig</w>":1391,"haired</w>":1392,"mer</w>":1393,"sand</w>":1394,"blau</w>":1395,"weiß</w>":1396,"look</w>":1397,"liest</w>":1398,"Musi":1399,"tele":1400,"chair</w>":1401,"rot</w>":1402,"spricht</w>":1403,"get":1404,"instru":1405,"work</w>":1406,"anderer</w>":1407,"Triko":1408,"Ko":1409,"Ten":1410,"cat":1411,"dri":1412,"dru":1413,"pul":1414,"sli":1415,"end</w>":1416,"enjo":1417,"runs</w>":1418,"windo":1419,"tennis</w>":1420,"fuhrt</w>":1421,"line</w>":1422,"ste</w>":1423,"adul":1424,"kel":1425,"posing</w>":1426,"reading</w>":1427,"bot":1428,"verk":1429,"fall":1430,"res</w>":1431,"struction</w>":1432,"unterhalten</w>":1433,"kom":1434,"uniform</w>":1435,"Young</w>":1436,"schir":1437,"iese</w>":1438,"sunglasses</w>":1439,"Foo":1440,"Wand</w>":1441,"ena":1442,"sst</w>":1443,"team</w>":1444,"weißem</w>":1445,"Haaren</w>":1446,"hi":1447,"ffit":1448,"clothing</w>":1449,"stum":1450,"three</w>":1451,"players</w>":1452,"microphone</w>":1453,"rosa</w>":1454,"coo":1455,"head":1456,"scht</w>":1457,"There</w>":1458,"groß":1459,"mountain</w>":1460,"covered</w>":1461,"swimm":1462,"iele</w>":1463,"light</w>":1464,"emp":1465,"toy</w>":1466,"Wasser":1467,"aga":1468,"iting</w>":1469,"ehr</w>":1470,"betra":1471,"Rei":1472,"ct</w>":1473,"ssi":1474,"set":1475,"ßt</w>":1476,"schne":1477,"grauen</w>":1478,"il</w>":1479,"Base":1480,"ocean</w>":1481,"Sonnenbrille</w>":1482,"Boot</w>":1483,"Bet":1484,"ath":1485,"ces</w>":1486,"watches</w>":1487,"zum</w>":1488,"Rad":1489,"tro":1490,"tat":1491,"basketball</w>":1492,"drei</w>":1493,"during</w>":1494,"dancing</w>":1495,"Pferd</w>":1496,"climbing</w>":1497,"motorc":1498,"mat":1499,"sel":1500,"ley":1501,"restaurant</w>":1502,"Rest":1503,"oba":1504,"erten</w>":1505,"past</w>":1506,"kids</w>":1507,"Hosen</w>":1508,"blauem</w>":1509,"gekleidete</w>":1510,"can</w>":1511,"fe</w>":1512,"seiner</w>":1513,"derly</w>":1514,"Spieler</w>":1515,"shirts</w>":1516,"Holz":1517,"platz</w>":1518,"ars</w>":1519,"beoba":1520,"Tag</w>":1521,"helmet</w>":1522,"Pol":1523,"Sei":1524,"let":1525,"inst</w>":1526,"ckey</w>":1527,"Zuschau":1528,"Pul":1529,"ance</w>":1530,"reit":1531,"eit</w>":1532,"against</w>":1533,"Bad":1534,"Fa":1535,"Flu":1536,"Tan":1537,"set</w>":1538,"Helm</w>":1539,"fol":1540,"ored</w>":1541,"train</w>":1542,"color":1543,"We":1544,"alter</w>":1545,"Schul":1546,"umbre":1547,"singt</w>":1548,"Ruck":1549,"klettert</w>":1550,"window</w>":1551,"umbrel":1552,"Ma":1553,"ab</w>":1554,"Gesicht</w>":1555,"ugel</w>":1556,"enen</w>":1557,"rides</w>":1558,"lean":1559,"Auto</w>":1560,"ffiti</w>":1561,"Rol":1562,"erin</w>":1563,"elderly</w>":1564,"ihnen</w>":1565,"Erwachsen":1566,"Feu":1567,"Rau":1568,"weiße</w>":1569,"Som":1570,"ings</w>":1571,"Mantel</w>":1572,"Fußball</w>":1573,"Bild</w>":1574,"Fen":1575,"fest":1576,"met":1577,"ung":1578,"enden</w>":1579,"Shorts</w>":1580,"Band</w>":1581,"bel":1582,"hou":1583,"pass":1584,"alt":1585,"gath":1586,"colored</w>":1587,"flow":1588,"One</w>":1589,"cross":1590,"wooden</w>":1591,"trees</w>":1592,"posiert</w>":1593,"oth":1594,"trin":1595,"having</w>":1596,"Felsen</w>":1597,"dunkel":1598,"about</w>":1599,"darauf</w>":1600,"kamp":1601,"rung</w>":1602,"unf</w>":1603,"bag</w>":1604,"outdoor</w>":1605,"Tenni":1606,"pe":1607,"ser":1608,"waiting</w>":1609,"igh</w>":1610,"sy</w>":1611,"they</w>":1612,"bles</w>":1613,"Auf":1614,"ker</w>":1615,"ns</w>":1616,"plan":1617,"wirft</w>":1618,"blauer</w>":1619,"befindet</w>":1620,"truck</w>":1621,"De":1622,"Na":1623,"cell":1624,"up":1625,"very</w>":1626,"arbeiter</w>":1627,"swimming</w>":1628,"ur</w>":1629,"getting</w>":1630,"lt</w>":1631,"eln":1632,"costum":1633,"uhen</w>":1634,"floor</w>":1635,"Fla":1636,"Her":1637,"Kar":1638,"ev":1639,"bus</w>":1640,"denen</w>":1641,"workers</w>":1642,"sbee</w>":1643,"Sand</w>":1644,"fel":1645,"net</w>":1646,"trying</w>":1647,"lover</w>":1648,"cour":1649,"construction</w>":1650,"gather":1651,"skateboard</w>":1652,"Mikrofon</w>":1653,"leaning</w>":1654,"Mit":1655,"id</w>":1656,"ahn":1657,"Baum</w>":1658,"dra":1659,"kauf":1660,"atue</w>":1661,"lich</w>":1662,"schwarzem</w>":1663,"book</w>":1664,"Tennis":1665,"Tre":1666,"ac":1667,"laying</w>":1668,"spiel</w>":1669,"Sto":1670,"busy</w>":1671,"ycli":1672,"versamm":1673,"gekleideter</w>":1674,"colorful</w>":1675,"Vor":1676,"hen</w>":1677,"ange":1678,"ssy</w>":1679,"igar":1680,"singing</w>":1681,"Das</w>":1682,"ke":1683,"sehr</w>":1684,"Gegen":1685,"fence</w>":1686,"Woman</w>":1687,"Pu":1688,"high</w>":1689,"ement</w>":1690,"jump</w>":1691,"cloth":1692,"hill</w>":1693,"Restaurant</w>":1694,"Fre":1695,"kit":1696,"eri":1697,"cket</w>":1698,"bow":1699,"ett":1700,"This</w>":1701,"Klein":1702,"fli":1703,"gar":1704,"os</w>":1705,"rotem</w>":1706,"deo</w>":1707,"mmer</w>":1708,"fore":1709,"mann":1710,"Meer</w>":1711,"ms</w>":1712,"oder</w>":1713,"rosa":1714,"lass</w>":1715,"cart</w>":1716,"Bl":1717,"gg":1718,"gril":1719,"ku":1720,"roter</w>":1721,"ged</w>":1722,"langen</w>":1723,"pack</w>":1724,"Co":1725,"ehnt</w>":1726,"liche</w>":1727,"bar</w>":1728,"market</w>":1729,"compet":1730,"Weg</w>":1731,"Ki":1732,"Wei":1733,"isst</w>":1734,"kind</w>":1735,"roun":1736,"ride</w>":1737,"Wald</w>":1738,"Arbeiter</w>":1739,"La":1740,"pra":1741,"pie":1742,"ens</w>":1743,"springen</w>":1744,"Mannern</w>":1745,"Wiese</w>":1746,"hats</w>":1747,"oben</w>":1748,"so":1749,"inside</w>":1750,"schwarze</w>":1751,"Kindern</w>":1752,"lacheln":1753,"sack</w>":1754,"mitten</w>":1755,"bereitet</w>":1756,"gestreiften</w>":1757,"Pullover</w>":1758,"Raum</w>":1759,"Fenster</w>":1760,"Men</w>":1761,"Met":1762,"Schild</w>":1763,"wartet</w>":1764,"skateboar":1765,"cap</w>":1766,"leyball</w>":1767,"Tra":1768,"hoo":1769,"body</w>":1770,"mach":1771,"essen</w>":1772,"iz":1773,"ja":1774,"lug":1775,"tan</w>":1776,"sil":1777,"wass":1778,"bright</w>":1779,"Al":1780,"ju":1781,"over":1782,"auft</w>":1783,"tern</w>":1784,"utzt</w>":1785,"Anzug</w>":1786,"Trikot</w>":1787,"others</w>":1788,"kitchen</w>":1789,"Ei":1790,"oh":1791,"path</w>":1792,"sts</w>":1793,"Schutz":1794,"grassy</w>":1795,"big</w>":1796,"Frisbee</w>":1797,"cellphone</w>":1798,"Sur":1799,"fil":1800,"end":1801,"shop":1802,"ish</w>":1803,"Motorrad</w>":1804,"bele":1805,"la</w>":1806,"anzug</w>":1807,"aun</w>":1808,"becken</w>":1809,"spla":1810,"whe":1811,"making</w>":1812,"voller</w>":1813,"Ob":1814,"Sand":1815,"Ski":1816,"Tur":1817,"West":1818,"bil":1819,"ee</w>":1820,"under":1821,"boarder</w>":1822,"night</w>":1823,"trick</w>":1824,"prep":1825,"posieren</w>":1826,"malt</w>":1827,"Bluse</w>":1828,"clothes</w>":1829,"lying</w>":1830,"ene</w>":1831,"licher</w>":1832,"umge":1833,"takes</w>":1834,"outfit</w>":1835,"brick</w>":1836,"Oberkor":1837,"werden</w>":1838,"age</w>":1839,"sk</w>":1840,"ican</w>":1841,"ject</w>":1842,"surroun":1843,"nach":1844,"Haar</w>":1845,"umbrella</w>":1846,"eten</w>":1847,"track</w>":1848,"wischen</w>":1849,"full</w>":1850,"towards</w>":1851,"motorcycle</w>":1852,"beleb":1853,"Uni":1854,"can":1855,"cra":1856,"ese</w>":1857,"aten</w>":1858,"atshirt</w>":1859,"tion</w>":1860,"shop</w>":1861,"Oberkorper</w>":1862,"Funf</w>":1863,"fon":1864,"ring</w>":1865,"ell</w>":1866,"river</w>":1867,"chtung</w>":1868,"zieht</w>":1869,"uniform":1870,"ritt</w>":1871,"enjoying</w>":1872,"Bru":1873,"Viele</w>":1874,"swing</w>":1875,"sha":1876,"gegen":1877,"Stuhl</w>":1878,"metal</w>":1879,"En":1880,"ep</w>":1881,"ny</w>":1882,"vie":1883,"wand</w>":1884,"yard</w>":1885,"ated</w>":1886,"open</w>":1887,"Spiel</w>":1888,"Sport":1889,"haari":1890,"Fußball":1891,"dunkl":1892,"uberqu":1893,"igarette</w>":1894,"gol":1895,"kel</w>":1896,"alten</w>":1897,"ous</w>":1898,"gelb":1899,"paper</w>":1900,"Ball":1901,"Kon":1902,"Pro":1903,"Ra":1904,"azi":1905,"land":1906,"weh":1907,"viol":1908,"dance</w>":1909,"ready</w>":1910,"betrachtet</w>":1911,"piece</w>":1912,"Hugel</w>":1913,"ked</w>":1914,"tank</w>":1915,"bet":1916,"shes</w>":1917,"ters</w>":1918,"surf":1919,"Sno":1920,"ich</w>":1921,"zwischen</w>":1922,"star":1923,"lie</w>":1924,"genie":1925,"Aus":1926,"Um":1927,"kers</w>":1928,"mt</w>":1929,"tor</w>":1930,"Handy</w>":1931,"Five</w>":1932,"els</w>":1933,"blonde</w>":1934,"stic</w>":1935,"gang</w>":1936,"Roll":1937,"Afri":1938,"Si":1939,"zer</w>":1940,"ening</w>":1941,"lake</w>":1942,"ones</w>":1943,"lot</w>":1944,"warten</w>":1945,"Leuten</w>":1946,"amerik":1947,"schlaft</w>":1948,"Zeit":1949,"sell":1950,"chs</w>":1951,"gesch":1952,"stick</w>":1953,"Berg</w>":1954,"sweater</w>":1955,"tanzen</w>":1956,"reitet</w>":1957,"Snow":1958,"Mutze</w>":1959,"bur":1960,"cu":1961,"ff</w>":1962,"grau":1963,"op</w>":1964,"sub":1965,"xing</w>":1966,"ze":1967,"unt":1968,"she</w>":1969,"Buch</w>":1970,"Rennen</w>":1971,"photogra":1972,"kne":1973,"lehnt</w>":1974,"min":1975,"several</w>":1976,"paar</w>":1977,"mmt</w>":1978,"Einkauf":1979,"above</w>":1980,"painting</w>":1981,"Feuer":1982,"Amer":1983,"Plat":1984,"hauti":1985,"Spielzeug</w>":1986,"Lo":1987,"Pap":1988,"geh":1989,"pf":1990,"sand":1991,"wboy</w>":1992,"haben</w>":1993,"Handen</w>":1994,"qui":1995,"ausge":1996,"going</w>":1997,"Bahn</w>":1998,"Li":1999,"Out":2000,"brau":2001,"esi":2002,"ka":2003,"son":2004,"ved</w>":2005,"gegen</w>":2006,"many</w>":2007,"bedeckten</w>":2008,"Stock</w>":2009,"Gro":2010,"Ti":2011,"cur":2012,"gy":2013,"hard</w>":2014,"stone</w>":2015,"miteinander</w>":2016,"snowy</w>":2017,"Maul</w>":2018,"vest</w>":2019,"beobachtet</w>":2020,"Ri":2021,"scar":2022,"Schn":2023,"wave</w>":2024,"Baumen</w>":2025,"worker</w>":2026,"Bade":2027,"house</w>":2028,"shopping</w>":2029,"sau":2030,"ven":2031,"iten</w>":2032,"las</w>":2033,"onto</w>":2034,"ops</w>":2035,"poin":2036,"tanzt</w>":2037,"music</w>":2038,"Fami":2039,"Fluss</w>":2040,"surrounded</w>":2041,"uniforms</w>":2042,"diti":2043,"ini</w>":2044,"ched</w>":2045,"chter</w>":2046,"ster":2047,"eich</w>":2048,"like</w>":2049,"afe</w>":2050,"Bauarbeiter</w>":2051,"crowded</w>":2052,"ihrer</w>":2053,"Renn":2054,"Baseball":2055,"Rucksack</w>":2056,"Kleinkind</w>":2057,"Fer":2058,"Hal":2059,"tritt</w>":2060,"indi":2061,"less</w>":2062,"mmel</w>":2063,"Arm</w>":2064,"stuck</w>":2065,"Po":2066,"Un":2067,"pad":2068,"ing":2069,"gear</w>":2070,"ams</w>":2071,"pole</w>":2072,"backpack</w>":2073,"smiles</w>":2074,"schiebt</w>":2075,"fangen</w>":2076,"stellt</w>":2077,"Bla":2078,"Ol":2079,"Sa":2080,"bir":2081,"frei":2082,"schine</w>":2083,"beside</w>":2084,"outdoors</w>":2085,"photo</w>":2086,"Football</w>":2087,"schnee":2088,"fire</w>":2089,"viel":2090,"vom</w>":2091,"schwimm":2092,"ori":2093,"Schau":2094,"com":2095,"tisch</w>":2096,"todd":2097,"convers":2098,"laugh":2099,"lache</w>":2100,"adults</w>":2101,"schirm</w>":2102,"Hi":2103,"Pla":2104,"ht</w>":2105,"mon":2106,"mitt":2107,"th</w>":2108,"ong":2109,"door</w>":2110,"Gewass":2111,"Basket":2112,"fami":2113,"befinden</w>":2114,"drinking</w>":2115,"radfahrer</w>":2116,"Radfahrer</w>":2117,"braun</w>":2118,"ining</w>":2119,"ange</w>":2120,"stad":2121,"stehen":2122,"utter</w>":2123,"hockey</w>":2124,"Schwimmbecken</w>":2125,"Get":2126,"gers</w>":2127,"kari":2128,"bridge</w>":2129,"farbener</w>":2130,"brun":2131,"cal</w>":2132,"fru":2133,"gn":2134,"num":2135,"tt</w>":2136,"gest":2137,"uter</w>":2138,"ure</w>":2139,"new":2140,"kid</w>":2141,"Seite</w>":2142,"Kuche</w>":2143,"Regen":2144,"instrumen":2145,"altung</w>":2146,"flowers</w>":2147,"dition":2148,"Com":2149,"Sof":2150,"ft":2151,"kni":2152,"yo":2153,"einigen</w>":2154,"rope</w>":2155,"spazi":2156,"verschie":2157,"aufer</w>":2158,"See</w>":2159,"Skateboar":2160,"roller</w>":2161,"spea":2162,"arms</w>":2163,"gathered</w>":2164,"Bik":2165,"Kor":2166,"Welle</w>":2167,"bung</w>":2168,"rut":2169,"und":2170,"ende</w>":2171,"eling</w>":2172,"rust":2173,"Geschaft</w>":2174,"nimmt</w>":2175,"shoes</w>":2176,"hanging</w>":2177,"Instru":2178,"kurzen</w>":2179,"event</w>":2180,"away</w>":2181,"ders</w>":2182,"ieren</w>":2183,"smo":2184,"uss":2185,"cher":2186,"iter</w>":2187,"ence</w>":2188,"sches</w>":2189,"schuhen</w>":2190,"catch</w>":2191,"subway</w>":2192,"Pi":2193,"Zaun</w>":2194,"swin":2195,"arm</w>":2196,"ween</w>":2197,"ahl":2198,"dies</w>":2199,"ulp":2200,"eidet</w>":2201,"carri":2202,"Rucken</w>":2203,"spec":2204,"autiful</w>":2205,"feld</w>":2206,"Treppe</w>":2207,"African</w>":2208,"family</w>":2209,"Chil":2210,"Ger":2211,"Gem":2212,"zo":2213,"anst":2214,"ery</w>":2215,"tradition":2216,"ull</w>":2217,"schneidet</w>":2218,"telefon":2219,"preparing</w>":2220,"Wer":2221,"cut":2222,"mp</w>":2223,"nah":2224,"sol":2225,"rote</w>":2226,"mid":2227,"emand</w>":2228,"tables</w>":2229,"zur</w>":2230,"lacheln</w>":2231,"ballo":2232,"Teena":2233,"steps</w>":2234,"object</w>":2235,"verkauft</w>":2236,"costume</w>":2237,"Familie</w>":2238,"toddler</w>":2239,"In</w>":2240,"Lad":2241,"bahn</w>":2242,"kar":2243,"ant</w>":2244,"schein":2245,"Many</w>":2246,"beg":2247,"Schwar":2248,"fishing</w>":2249,"offic":2250,"tures</w>":2251,"sleeping</w>":2252,"attemp":2253,"Ch":2254,"Ne":2255,"bank</w>":2256,"gent":2257,"pack":2258,"auss":2259,"lar</w>":2260,"guys</w>":2261,"appe":2262,"trinkt</w>":2263,"versammelt</w>":2264,"rosafarbenen</w>":2265,"Getran":2266,"Children</w>":2267,"Do":2268,"Gar":2269,"neh":2270,"rail":2271,"ates</w>":2272,"short</w>":2273,"plaid</w>":2274,"mal</w>":2275,"after</w>":2276,"fountain</w>":2277,"volleyball</w>":2278,"wood</w>":2279,"hangt</w>":2280,"bunten</w>":2281,"Park":2282,"Metall":2283,"machine</w>":2284,"amerikani":2285,"American</w>":2286,"tless</w>":2287,"statue</w>":2288,"beautiful</w>":2289,"take</w>":2290,"stairs</w>":2291,"Geland":2292,"Flag":2293,"Eis":2294,"glei":2295,"hu":2296,"pon":2297,"ser</w>":2298,"wen":2299,"dium</w>":2300,"ihn</w>":2301,"pink":2302,"Blumen</w>":2303,"zeug":2304,"Bil":2305,"Brau":2306,"ic</w>":2307,"einige</w>":2308,"ron</w>":2309,"asse</w>":2310,"chairs</w>":2311,"adult</w>":2312,"großer</w>":2313,"gruppe</w>":2314,"squ":2315,"Stein":2316,"Schir":2317,"tos</w>":2318,"graffiti</w>":2319,"asian</w>":2320,"Wagen</w>":2321,"Markt</w>":2322,"telefoniert</w>":2323,"Vol":2324,"fre":2325,"hom":2326,"stum</w>":2327,"pose</w>":2328,"ffee</w>":2329,"hebt</w>":2330,"gerade</w>":2331,"teena":2332,"police</w>":2333,"schaft":2334,"belebten</w>":2335,"padd":2336,"Comput":2337,"anstaltung</w>":2338,"Kamp":2339,"ak</w>":2340,"nack":2341,"rocks</w>":2342,"lead":2343,"ppen</w>":2344,"ummer</w>":2345,"schlagt</w>":2346,"balan":2347,"Zug</w>":2348,"shirtless</w>":2349,"asiatische</w>":2350,"Blum":2351,"practi":2352,"umgeben</w>":2353,"selling</w>":2354,"schwimmt</w>":2355,"spazieren</w>":2356,"Ab":2357,"Mutter</w>":2358,"aged</w>":2359,"jers":2360,"zer":2361,"rea":2362,"schri":2363,"does</w>":2364,"zimmer</w>":2365,"sunny</w>":2366,"Bus</w>":2367,"Reihe</w>":2368,"forest</w>":2369,"Zie":2370,"glass</w>":2371,"hut</w>":2372,"ot":2373,"vest":2374,"spre":2375,"nel</w>":2376,"ght":2377,"ellen</w>":2378,"farbenem</w>":2379,"weißes</w>":2380,"blicken</w>":2381,"setting</w>":2382,"yclist</w>":2383,"sonni":2384,"Gewasser</w>":2385,"Ty":2386,"four</w>":2387,"fliegt</w>":2388,"kon":2389,"mehr":2390,"use</w>":2391,"stance</w>":2392,"ral</w>":2393,"racing</w>":2394,"get</w>":2395,"gebau":2396,"wim":2397,"parade</w>":2398,"gekleidet</w>":2399,"Fußballspieler</w>":2400,"Autos</w>":2401,"Kopfbedeck":2402,"freiem</w>":2403,"schneebedeckten</w>":2404,"Vi":2405,"bor":2406,"bru":2407,"equi":2408,"go</w>":2409,"kan":2410,"kun":2411,"arti":2412,"rock":2413,"sse</w>":2414,"water":2415,"mounta":2416,"grunem</w>":2417,"ycles</w>":2418,"Tasche</w>":2419,"Indi":2420,"drink</w>":2421,"tografi":2422,"Schlag":2423,"corner</w>":2424,"putting</w>":2425,"both</w>":2426,"vielen</w>":2427,"Flug":2428,"fall</w>":2429,"flache</w>":2430,"tall</w>":2431,"val</w>":2432,"vier</w>":2433,"blik":2434,"throwing</w>":2435,"Fahrra":2436,"lasst</w>":2437,"show</w>":2438,"bikes</w>":2439,"figh":2440,"Fuß</w>":2441,"Hande</w>":2442,"Gebaudes</w>":2443,"pushing</w>":2444,"straße</w>":2445,"Brucke</w>":2446,"Feuerweh":2447,"scarf</w>":2448,"gentle":2449,"sonnigen</w>":2450,"blikum</w>":2451,"Tele":2452,"ift</w>":2453,"pment</w>":2454,"befest":2455,"ope</w>":2456,"time</w>":2457,"ulti":2458,"party</w>":2459,"have</w>":2460,"jacke</w>":2461,"fotografi":2462,"instrument</w>":2463,"slide</w>":2464,"kommt</w>":2465,"Publikum</w>":2466,"view</w>":2467,"between</w>":2468,"Himmel</w>":2469,"rustung</w>":2470,"aussehen":2471,"Bart</w>":2472,"Sol":2473,"To":2474,"cle":2475,"glo":2476,"ladies</w>":2477,"ehic":2478,"bed</w>":2479,"leu":2480,"hoch":2481,"hohen</w>":2482,"Hemden</w>":2483,"blic</w>":2484,"public</w>":2485,"Some</w>":2486,"kampfen</w>":2487,"Richtung</w>":2488,"laughing</w>":2489,"Che":2490,"kop":2491,"wand":2492,"schrei":2493,"ppy</w>":2494,"uhlen</w>":2495,"Basketball</w>":2496,"Hoch":2497,"herunter</w>":2498,"someone</w>":2499,"computer</w>":2500,"instruments</w>":2501,"Schwarz</w>":2502,"equipment</w>":2503,"fish</w>":2504,"hn":2505,"ned</w>":2506,"vehic":2507,"alte</w>":2508,"ley</w>":2509,"pping</w>":2510,"sky</w>":2511,"eller</w>":2512,"liegen</w>":2513,"shoul":2514,"phones</w>":2515,"Graffiti</w>":2516,"couch</w>":2517,"Gelander</w>":2518,"Poli":2519,"Weste</w>":2520,"dunklen</w>":2521,"Haus</w>":2522,"Kan":2523,"Vo":2524,"Wett":2525,"gging</w>":2526,"grun</w>":2527,"unten</w>":2528,"stuhl</w>":2529,"rec":2530,"ramp</w>":2531,"where</w>":2532,"plastic</w>":2533,"ull":2534,"zuschauen</w>":2535,"sun</w>":2536,"blaue</w>":2537,"pictures</w>":2538,"flag</w>":2539,"bott":2540,"Beton":2541,"Schutzhel":2542,"Da":2543,"station</w>":2544,"span":2545,"dock</w>":2546,"which</w>":2547,"playground</w>":2548,"tiger</w>":2549,"trail</w>":2550,"ally</w>":2551,"Sprung</w>":2552,"poses</w>":2553,"works</w>":2554,"smitt":2555,"concre":2556,"struc":2557,"reads</w>":2558,"woods</w>":2559,"sweatshirt</w>":2560,"bereiten</w>":2561,"athon</w>":2562,"Zuschauer</w>":2563,"Platz</w>":2564,"Kopfbedeckung</w>":2565,"concrete</w>":2566,"Bahn":2567,"clu":2568,"fle":2569,"wur":2570,"ends</w>":2571,"beard</w>":2572,"skirt</w>":2573,"treten</w>":2574,"Seil</w>":2575,"Erwachsene</w>":2576,"Zeitung</w>":2577,"ier":2578,"pes</w>":2579,"wel":2580,"zeit":2581,"mil":2582,"spra":2583,"ems</w>":2584,"emd</w>":2585,"halb</w>":2586,"hinauf</w>":2587,"aps</w>":2588,"fire":2589,"winter</w>":2590,"fest</w>":2591,"Mannes</w>":2592,"abge":2593,"asiatischer</w>":2594,"mittl":2595,"midair</w>":2596,"ause</w>":2597,"ely</w>":2598,"utt":2599,"dor</w>":2600,"ugend":2601,"shov":2602,"conc":2603,"suits</w>":2604,"blondes</w>":2605,"Musik</w>":2606,"just</w>":2607,"Unter":2608,"nahe</w>":2609,"row</w>":2610,"she":2611,"ssing</w>":2612,"ete</w>":2613,"cowboy</w>":2614,"verschne":2615,"foot</w>":2616,"utzen</w>":2617,"scope</w>":2618,"ungs":2619,"karierten</w>":2620,"number</w>":2621,"Kra":2622,"San":2623,"aari":2624,"dings</w>":2625,"mehrere</w>":2626,"mna":2627,"unger</w>":2628,"geschaft</w>":2629,"distance</w>":2630,"Schauf":2631,"ief":2632,"davon</w>":2633,"braune</w>":2634,"ampe</w>":2635,"lined</w>":2636,"Stadt":2637,"dunkelhauti":2638,"uberqueren</w>":2639,"genießt</w>":2640,"Bli":2641,"Far":2642,"Hof</w>":2643,"Jemand</w>":2644,"hik":2645,"kti":2646,"uz":2647,"stein":2648,"repar":2649,"alle</w>":2650,"rain</w>":2651,"school</w>":2652,"ckey":2653,"dion</w>":2654,"site</w>":2655,"list":2656,"ligh":2657,"bags</w>":2658,"zusehen</w>":2659,"seated</w>":2660,"Fels":2661,"scre":2662,"Kunststuck</w>":2663,"attire</w>":2664,"toward</w>":2665,"Decke</w>":2666,"photograp":2667,"Jugend":2668,"Kre":2669,"hei":2670,"ven</w>":2671,"innen</w>":2672,"lacht</w>":2673,"irts</w>":2674,"beer</w>":2675,"spap":2676,"what</w>":2677,"place</w>":2678,"left</w>":2679,"Leben":2680,"elec":2681,"gibt</w>":2682,"tatto":2683,"Zuschauern</w>":2684,"grill</w>":2685,"wheel":2686,"stadti":2687,"mittleren</w>":2688,"air":2689,"dding</w>":2690,"sed</w>":2691,"sam</w>":2692,"tent</w>":2693,"unnel</w>":2694,"lad":2695,"box</w>":2696,"displa":2697,"near":2698,"ula</w>":2699,"benutzt</w>":2700,"entlichen</w>":2701,"gelber</w>":2702,"Kinder":2703,"brett</w>":2704,"Mauer</w>":2705,"Foot":2706,"cooking</w>":2707,"filled</w>":2708,"Outfit</w>":2709,"cutting</w>":2710,"Schirm</w>":2711,"schrift</w>":2712,"vests</w>":2713,"Blat":2714,"Con":2715,"Little</w>":2716,"da</w>":2717,"wer</w>":2718,"ender</w>":2719,"right</w>":2720,"shore</w>":2721,"Menge</w>":2722,"buildings</w>":2723,"Spielplatz</w>":2724,"unterhalt</w>":2725,"nacht":2726,"fuhren</w>":2727,"Stuck</w>":2728,"pulling</w>":2729,"Papier</w>":2730,"newspap":2731,"Sold":2732,"El":2733,"Gir":2734,"cam":2735,"kten</w>":2736,"auß":2737,"rider</w>":2738,"riesi":2739,"blan":2740,"Schur":2741,"tie</w>":2742,"tou":2743,"zugen</w>":2744,"orangen</w>":2745,"markt</w>":2746,"prepar":2747,"Einige</w>":2748,"Rock</w>":2749,"cream</w>":2750,"Baseballspieler</w>":2751,"Freun":2752,"Schaukel</w>":2753,"nehmen</w>":2754,"Lebensmitt":2755,"Land":2756,"Pool</w>":2757,"cla":2758,"ess</w>":2759,"lil":2760,"wrest":2761,"schi":2762,"emon":2763,"ski":2764,"zusieht</w>":2765,"Mensch</w>":2766,"bereit</w>":2767,"cliff</w>":2768,"vege":2769,"großes</w>":2770,"crossing</w>":2771,"court</w>":2772,"Weih":2773,"Alters</w>":2774,"appears</w>":2775,"Back":2776,"Klass":2777,"ban</w>":2778,"brin":2779,"edge</w>":2780,"pen</w>":2781,"test":2782,"iner</w>":2783,"ang</w>":2784,"arded</w>":2785,"stik":2786,"rist":2787,"ety</w>":2788,"neben":2789,"tag</w>":2790,"zuschaut</w>":2791,"lang":2792,"showing</w>":2793,"Baum":2794,"Fußgan":2795,"stumen</w>":2796,"tators</w>":2797,"Mitte</w>":2798,"Surfer</w>":2799,"violet":2800,"Sofa</w>":2801,"scheint</w>":2802,"Kampf":2803,"mountains</w>":2804,"nebeneinander</w>":2805,"bub":2806,"writ":2807,"emand":2808,"bathing</w>":2809,"count":2810,"uhe</w>":2811,"afri":2812,"boots</w>":2813,"Augen</w>":2814,"tur</w>":2815,"ggles</w>":2816,"haarige</w>":2817,"Rasen</w>":2818,"Feuerwehr":2819,"leucht":2820,"Blick</w>":2821,"außer":2822,"lila</w>":2823,"Brun":2824,"Chin":2825,"Gril":2826,"ach":2827,"ban":2828,"fits</w>":2829,"har":2830,"jemand":2831,"ose</w>":2832,"arts</w>":2833,"schwin":2834,"sprit":2835,"pped</w>":2836,"gelb</w>":2837,"jung":2838,"dresses</w>":2839,"biet</w>":2840,"Fotos</w>":2841,"performs</w>":2842,"Women</w>":2843,"Turn":2844,"nachts</w>":2845,"jersey</w>":2846,"Typ</w>":2847,"nearby</w>":2848,"Bier</w>":2849,"Dach</w>":2850,"Ker":2851,"Zigarette</w>":2852,"hemd</w>":2853,"pat":2854,"rela":2855,"cker":2856,"gem":2857,"die":2858,"leit":2859,"tial</w>":2860,"streckt</w>":2861,"make</w>":2862,"hinten</w>":2863,"jungen</w>":2864,"apron</w>":2865,"perform</w>":2866,"horses</w>":2867,"Schnee":2868,"few</w>":2869,"friends</w>":2870,"versuchen</w>":2871,"ammer</w>":2872,"musici":2873,"driving</w>":2874,"yclists</w>":2875,"Gegenstand</w>":2876,"Uniform</w>":2877,"Einkaufs":2878,"carries</w>":2879,"Nummer</w>":2880,"Winter":2881,"do</w>":2882,"saf":2883,"ugt</w>":2884,"vari":2885,"unt</w>":2886,"chen":2887,"wet":2888,"gep":2889,"dio</w>":2890,"utsche</w>":2891,"legt</w>":2892,"tasche</w>":2893,"skop</w>":2894,"ffer":2895,"biker</w>":2896,"teams</w>":2897,"jekt</w>":2898,"cake</w>":2899,"Sonne</w>":2900,"leaves</w>":2901,"bowling</w>":2902,"competiti":2903,"ohn</w>":2904,"Blumen":2905,"Ziegel":2906,"mehreren</w>":2907,"Mund</w>":2908,"Tau":2909,"bb":2910,"bs</w>":2911,"cup</w>":2912,"cigarette</w>":2913,"hug":2914,"lit":2915,"por":2916,"rand":2917,"so</w>":2918,"wil":2919,"stelle</w>":2920,"box":2921,"Schal</w>":2922,"parked</w>":2923,"cars</w>":2924,"teilen</w>":2925,"mpol":2926,"uses</w>":2927,"dents</w>":2928,"roll":2929,"fangt</w>":2930,"painted</w>":2931,"beobachten</w>":2932,"flower</w>":2933,"trinken</w>":2934,"fruit</w>":2935,"structure</w>":2936,"Wand":2937,"ctor</w>":2938,"mother</w>":2939,"sw":2940,"alen</w>":2941,"ruh":2942,"raucht</w>":2943,"farbenfro":2944,"shot</w>":2945,"smile</w>":2946,"surfer</w>":2947,"talks</w>":2948,"offentlichen</w>":2949,"werfen</w>":2950,"goggles</w>":2951,"snowboarder</w>":2952,"eyes</w>":2953,"Trikots</w>":2954,"athlet":2955,"vendor</w>":2956,"kniet</w>":2957,"Flagge</w>":2958,"Weihnacht":2959,"Tro":2960,"Tei":2961,"flying</w>":2962,"len":2963,"son</w>":2964,"scoo":2965,"rotes</w>":2966,"sion</w>":2967,"Stre":2968,"Stange</w>":2969,"lit</w>":2970,"parti":2971,"nic</w>":2972,"nicht</w>":2973,"iges</w>":2974,"Armen</w>":2975,"martial</w>":2976,"beide</w>":2977,"Holz</w>":2978,"Stufen</w>":2979,"Musik":2980,"drums</w>":2981,"betrachten</w>":2982,"flip</w>":2983,"Cow":2984,"skateboarder</w>":2985,"Snowboarder</w>":2986,"Ferne</w>":2987,"rutscht</w>":2988,"smoking</w>":2989,"Teenager</w>":2990,"ghtly</w>":2991,"vehicle</w>":2992,"bottle</w>":2993,"verschneiten</w>":2994,"Schurze</w>":2995,"Bal":2996,"Gla":2997,"Rampe</w>":2998,"Wanderer</w>":2999,"hit</w>":3000,"kt":3001,"mutze</w>":3002,"pit":3003,"skleidung</w>":3004,"zz":3005,"zur":3006,"sport":3007,"shi":3008,"coffee</w>":3009,"Fahrrad":3010,"gruner</w>":3011,"Bow":3012,"Gehsteig</w>":3013,"Veranstaltung</w>":3014,"home</w>":3015,"rocky</w>":3016,"concert</w>":3017,"Gol":3018,"Sit":3019,"dle</w>":3020,"same</w>":3021,"viele</w>":3022,"ering</w>":3023,"auer</w>":3024,"ales</w>":3025,"tigen</w>":3026,"waves</w>":3027,"gele":3028,"guckt</w>":3029,"kicking</w>":3030,"jackets</w>":3031,"Boy</w>":3032,"flags</w>":3033,"tuch</w>":3034,"paint</w>":3035,"folgt</w>":3036,"Some":3037,"Surf":3038,"Group</w>":3039,"gymna":3040,"coming</w>":3041,"younger</w>":3042,"verschieden":3043,"swinging</w>":3044,"newspaper</w>":3045,"prepares</w>":3046,"safety</w>":3047,"Kap":3048,"fei":3049,"gold</w>":3050,"kn":3051,"ken":3052,"kha":3053,"no</w>":3054,"erlead":3055,"alley</w>":3056,"rail</w>":3057,"befor":3058,"differ":3059,"ssen":3060,"bucket</w>":3061,"hose</w>":3062,"blonden</w>":3063,"gather</w>":3064,"itary</w>":3065,"case</w>":3066,"zeit</w>":3067,"kampf</w>":3068,"costumes</w>":3069,"Tennisball</w>":3070,"conversation</w>":3071,"spectators</w>":3072,"zogen</w>":3073,"practicing</w>":3074,"gentleman</w>":3075,"befestig":3076,"gloves</w>":3077,"Polizi":3078,"außerhalb</w>":3079,"Ak":3080,"Ban":3081,"Jo":3082,"Mi":3083,"Wor":3084,"cleaning</w>":3085,"cement</w>":3086,"del":3087,"multi":3088,"einge":3089,"stern</w>":3090,"this</w>":3091,"roof</w>":3092,"onloo":3093,"bearded</w>":3094,"etz</w>":3095,"del</w>":3096,"formen</w>":3097,"parking</w>":3098,"greift</w>":3099,"dass</w>":3100,"ape</w>":3101,"scene</w>":3102,"ziehen</w>":3103,"schlagen</w>":3104,"bartiger</w>":3105,"Sonnenunter":3106,"bunch</w>":3107,"Kostumen</w>":3108,"Gemuse</w>":3109,"listening</w>":3110,"ladder</w>":3111,"competition</w>":3112,"different</w>":3113,"He":3114,"Haus":3115,"Swe":3116,"aff":3117,"kaufen</w>":3118,"mem":3119,"zert</w>":3120,"items</w>":3121,"staring</w>":3122,"there</w>":3123,"dire":3124,"Statue</w>":3125,"wait</w>":3126,"hold</w>":3127,"lange</w>":3128,"farbi":3129,"Baseball</w>":3130,"bikini</w>":3131,"ctive</w>":3132,"blaues</w>":3133,"surft</w>":3134,"vidu":3135,"produ":3136,"Auf</w>":3137,"signs</w>":3138,"Verk":3139,"Bett</w>":3140,"Poliz":3141,"skateboarding</w>":3142,"Instrumen":3143,"Vogel</w>":3144,"blanket</w>":3145,"zuru":3146,"Clo":3147,"Nah":3148,"bull</w>":3149,"cut</w>":3150,"igt</w>":3151,"kani":3152,"pile</w>":3153,"sort</w>":3154,"ty":3155,"ines</w>":3156,"audi":3157,"lap":3158,"lage</w>":3159,"lachen</w>":3160,"lawn</w>":3161,"Stro":3162,"liert</w>":3163,"liches</w>":3164,"umm":3165,"tack":3166,"verti":3167,"dessen</w>":3168,"desk</w>":3169,"Kleidern</w>":3170,"bicycles</w>":3171,"hilft</w>":3172,"giving</w>":3173,"meal</w>":3174,"drinks</w>":3175,"klettern</w>":3176,"Musiker</w>":3177,"fallen</w>":3178,"empty</w>":3179,"Aufschrift</w>":3180,"Nacht</w>":3181,"gelbem</w>":3182,"brunette</w>":3183,"balloon</w>":3184,"railing</w>":3185,"fotografiert</w>":3186,"various</w>":3187,"audience</w>":3188,"Tou":3189,"av":3190,"cle</w>":3191,"uh</w>":3192,"wan":3193,"reden</w>":3194,"rodeo</w>":3195,"bewe":3196,"beugt</w>":3197,"cker</w>":3198,"shoo":3199,"gets</w>":3200,"gebung</w>":3201,"Schie":3202,"leaps</w>":3203,"ppen":3204,"ski</w>":3205,"assen</w>":3206,"ffen</w>":3207,"aufge":3208,"gelbe</w>":3209,"ausrustung</w>":3210,"prote":3211,"Mannschaft</w>":3212,"beiden</w>":3213,"Wasch":3214,"Kostum</w>":3215,"mannliche</w>":3216,"Skifahrer</w>":3217,"Basketballspieler</w>":3218,"kunst":3219,"schreibt</w>":3220,"stadtischen</w>":3221,"country</w>":3222,"Someone</w>":3223,"onlookers</w>":3224,"Sonnenuntergang</w>":3225,"Cafe</w>":3226,"Huten</w>":3227,"Mat":3228,"Zelt</w>":3229,"br":3230,"band":3231,"flu":3232,"mauer</w>":3233,"ust</w>":3234,"unbefestig":3235,"rais":3236,"schonen</w>":3237,"weit":3238,"beit</w>":3239,"spar":3240,"oph":3241,"Scho":3242,"bask":3243,"deo":3244,"Spie":3245,"hot</w>":3246,"Kletter":3247,"Leiter</w>":3248,"phon</w>":3249,"Sechs</w>":3250,"Art</w>":3251,"Haare</w>":3252,"schaften</w>":3253,"sliding</w>":3254,"Maschine</w>":3255,"plane</w>":3256,"Herr</w>":3257,"gathering</w>":3258,"bowl</w>":3259,"uberquert</w>":3260,"surfing</w>":3261,"pointing</w>":3262,"gneri":3263,"New</w>":3264,"display</w>":3265,"Girl</w>":3266,"vegetables</w>":3267,"Klassen":3268,"Polizisten</w>":3269,"Tur</w>":3270,"Ufer</w>":3271,"ced</w>":3272,"cers</w>":3273,"class":3274,"class</w>":3275,"hof</w>":3276,"land</w>":3277,"roth":3278,"wet</w>":3279,"spor":3280,"sport</w>":3281,"Schrei":3282,"emo":3283,"streets</w>":3284,"beruh":3285,"facing</w>":3286,"hort</w>":3287,"barfu":3288,"feet</w>":3289,"chasing</w>":3290,"obser":3291,"Kaja":3292,"versammeln</w>":3293,"kay":3294,"individu":3295,"bird</w>":3296,"nacktem</w>":3297,"gebaude</w>":3298,"Indian</w>":3299,"Damen</w>":3300,"basket</w>":3301,"Bar</w>":3302,"Die":3303,"Fe":3304,"Lauf":3305,"cir":3306,"keit</w>":3307,"ow</w>":3308,"xoph":3309,"zent":3310,"ini":3311,"stat":3312,"wedding</w>":3313,"sports</w>":3314,"stret":3315,"mask</w>":3316,"pass</w>":3317,"happy</w>":3318,"luck":3319,"boot</w>":3320,"ling":3321,"platform</w>":3322,"schnit":3323,"helmets</w>":3324,"stop</w>":3325,"gestreiftem</w>":3326,"beleu":3327,"competing</w>":3328,"silver</w>":3329,"Obst</w>":3330,"speaking</w>":3331,"gemein":3332,"before</w>":3333,"Sweatshirt</w>":3334,"Leine</w>":3335,"Mil":3336,"Rutsche</w>":3337,"Tor</w>":3338,"sal":3339,"us</w>":3340,"chin":3341,"chest":3342,"schm":3343,"ork</w>":3344,"ckten</w>":3345,"boden</w>":3346,"sses</w>":3347,"uring</w>":3348,"Schuhen</w>":3349,"leeren</w>":3350,"maschine</w>":3351,"ouse</w>":3352,"busin":3353,"sculp":3354,"Spielzeug":3355,"gaz":3356,"zeich":3357,"werk</w>":3358,"tries</w>":3359,"Wald":3360,"match</w>":3361,"Kids</w>":3362,"ohne</w>":3363,"surfboard</w>":3364,"Six</w>":3365,"ftball":3366,"huge</w>":3367,"sprechen</w>":3368,"lights</w>":3369,"classroom</w>":3370,"Fah":3371,"Laufer</w>":3372,"Su":3373,"Vater</w>":3374,"ace</w>":3375,"bers</w>":3376,"lten</w>":3377,"mas</w>":3378,"wra":3379,"ern":3380,"lila":3381,"ersu":3382,"waits</w>":3383,"des":3384,"ske</w>":3385,"bride</w>":3386,"liegen":3387,"blonder</w>":3388,"Hockey":3389,"sings</w>":3390,"Pfad</w>":3391,"students</w>":3392,"sticks</w>":3393,"purse</w>":3394,"Wohn":3395,"Parade</w>":3396,"climbs</w>":3397,"Kopfhor":3398,"setzt</w>":3399,"Eimer</w>":3400,"Westen</w>":3401,"haariger</w>":3402,"genießen</w>":3403,"Basketball":3404,"Bikini</w>":3405,"traditional</w>":3406,"fighting</w>":3407,"kopfi":3408,"iefeln</w>":3409,"screen</w>":3410,"Brunnen</w>":3411,"Grill</w>":3412,"Polizist</w>":3413,"Aben":3414,"Col":3415,"Di":3416,"Diese</w>":3417,"Eis</w>":3418,"Fisch</w>":3419,"Kir":3420,"Kur":3421,"Pass":3422,"dau":3423,"dir":3424,"kla":3425,"mall</w>":3426,"nung</w>":3427,"rro":3428,"slo":3429,"sof":3430,"tops</w>":3431,"inger</w>":3432,"chte</w>":3433,"ali":3434,"rat":3435,"mirro":3436,"eibe</w>":3437,"shad":3438,"shed</w>":3439,"Stuhlen</w>":3440,"counter</w>":3441,"town</w>":3442,"weibli":3443,"watte</w>":3444,"crou":3445,"how</w>":3446,"hole</w>":3447,"seen</w>":3448,"gelt</w>":3449,"Fahrzeug</w>":3450,"kissing</w>":3451,"vorbei":3452,"break</w>":3453,"animal</w>":3454,"hang</w>":3455,"Rodeo</w>":3456,"Trick</w>":3457,"armel":3458,"asiatischen</w>":3459,"kommen</w>":3460,"Reifen</w>":3461,"Seifen":3462,"Vorder":3463,"jagt</w>":3464,"silber":3465,"cano":3466,"Umgebung</w>":3467,"Badeanzug</w>":3468,"Computer</w>":3469,"military</w>":3470,"Flo":3471,"Gei":3472,"Lap":3473,"Over":3474,"ig</w>":3475,"ki</w>":3476,"rein":3477,"trun":3478,"tran":3479,"usi":3480,"chts</w>":3481,"sting</w>":3482,"stom":3483,"stroller</w>":3484,"atten":3485,"wobei</w>":3486,"urban</w>":3487,"Schuss":3488,"walk":3489,"cora":3490,"decora":3491,"skier</w>":3492,"skating</w>":3493,"entspan":3494,"gend":3495,"range</w>":3496,"stair":3497,"marathon</w>":3498,"gekleideten</w>":3499,"Berg":3500,"swee":3501,"Regen</w>":3502,"Feuer</w>":3503,"Ende</w>":3504,"gelbes</w>":3505,"Getrank</w>":3506,"wimmen</w>":3507,"Schlagzeug</w>":3508,"electri":3509,"Oh":3510,"So":3511,"Wellen</w>":3512,"York</w>":3513,"din":3514,"hup":3515,"lung</w>":3516,"nie":3517,"pil":3518,"inmitten</w>":3519,"erbla":3520,"arn":3521,"lap</w>":3522,"diving</w>":3523,"ett</w>":3524,"lesen</w>":3525,"outfits</w>":3526,"dreht</w>":3527,"throw</w>":3528,"braunem</w>":3529,"grune</w>":3530,"Pflan":3531,"talk</w>":3532,"samm":3533,"sunset</w>":3534,"females</w>":3535,"Tanz":3536,"Erwachsener</w>":3537,"Konzert</w>":3538,"starrt</w>":3539,"grauem</w>":3540,"kneeling</w>":3541,"Plastik":3542,"Regenschirm</w>":3543,"Laden</w>":3544,"Braut</w>":3545,"shoulder</w>":3546,"Schutzhelm</w>":3547,"Soldaten</w>":3548,"riesigen</w>":3549,"writing</w>":3550,"afrikani":3551,"schwingt</w>":3552,"Schreib":3553,"walkway</w>":3554,"Bro":3555,"Dra":3556,"Kat":3557,"Sohn</w>":3558,"Tat":3559,"Wh":3560,"Win":3561,"Zi":3562,"cand":3563,"ecke</w>":3564,"fra":3565,"owi":3566,"tau":3567,"wn":3568,"wol":3569,"ymp":3570,"angen</w>":3571,"oper":3572,"ils</w>":3573,"ily</w>":3574,"runner</w>":3575,"waving</w>":3576,"Spa":3577,"sel</w>":3578,"durch":3579,"Leder":3580,"Fahrer</w>":3581,"alteren</w>":3582,"Handschuhen</w>":3583,"bare":3584,"Fotogra":3585,"anderes</w>":3586,"Motorradfahrer</w>":3587,"sleep</w>":3588,"eyboard</w>":3589,"block</w>":3590,"Badeh":3591,"Erwachsenen</w>":3592,"Gegend</w>":3593,"Uniformen</w>":3594,"photograph":3595,"Instrument</w>":3596,"soldi":3597,"attempting</w>":3598,"Parkplatz</w>":3599,"Volleyball</w>":3600,"ristmas</w>":3601,"gepfla":3602,"scooter</w>":3603,"gemeinsam</w>":3604,"Bar":3605,"by":3606,"made</w>":3607,"ang":3608,"sterten</w>":3609,"laden</w>":3610,"wear</w>":3611,"atten</w>":3612,"boy":3613,"disc":3614,"lies</w>":3615,"verkleid":3616,"Straßen</w>":3617,"alls</w>":3618,"Sprin":3619,"part":3620,"balls</w>":3621,"Shirts</w>":3622,"five</w>":3623,"Feld":3624,"clou":3625,"Gebauden</w>":3626,"offenen</w>":3627,"Bergen</w>":3628,"Bereich</w>":3629,"rolling</w>":3630,"Straßenrand</w>":3631,"Straßenecke</w>":3632,"armt</w>":3633,"exam":3634,"blowing</w>":3635,"course</w>":3636,"Weiß</w>":3637,"lachelnd</w>":3638,"violin</w>":3639,"Korb</w>":3640,"Werk":3641,"Gelandemo":3642,"wendet</w>":3643,"Kinderwagen</w>":3644,"Seifenbla":3645,"Gelandemotor":3646,"Gu":3647,"Hin":3648,"bin":3649,"cele":3650,"eg":3651,"gli":3652,"goo":3653,"hin</w>":3654,"ton</w>":3655,"van</w>":3656,"well</w>":3657,"art":3658,"ary</w>":3659,"sty":3660,"refle":3661,"schwimmen</w>":3662,"irgend":3663,"rist</w>":3664,"adverti":3665,"base</w>":3666,"ump":3667,"umarmt</w>":3668,"schwarzes</w>":3669,"father</w>":3670,"Arme</w>":3671,"Arbeit</w>":3672,"Baustelle</w>":3673,"says</w>":3674,"close</w>":3675,"singen</w>":3676,"profe":3677,"bald</w>":3678,"Team</w>":3679,"fully</w>":3680,"wachsenen</w>":3681,"Mikrophon</w>":3682,"ssion":3683,"overlooking</w>":3684,"Fern":3685,"officer</w>":3686,"pinkfarbenen</w>":3687,"bubbles</w>":3688,"spritzt</w>":3689,"leitet</w>":3690,"partici":3691,"zuruck</w>":3692,"Schoß</w>":3693,"business</w>":3694,"mirror</w>":3695,"BM":3696,"Land</w>":3697,"Mull":3698,"Pause</w>":3699,"Tor":3700,"Waren</w>":3701,"Zei":3702,"cy</w>":3703,"ds":3704,"dent</w>":3705,"grin":3706,"mat</w>":3707,"sack":3708,"them":3709,"wegs</w>":3710,"richter</w>":3711,"ahl</w>":3712,"ruht</w>":3713,"plate</w>":3714,"Schlau":3715,"leans</w>":3716,"train":3717,"grasbe":3718,"grunes</w>":3719,"conta":3720,"fast</w>":3721,"fixing</w>":3722,"Jacken</w>":3723,"offen":3724,"Asiat":3725,"orangefarbener</w>":3726,"Rot</w>":3727,"Skateboarder</w>":3728,"balloons</w>":3729,"Krawatte</w>":3730,"dunkelhautiger</w>":3731,"litten</w>":3732,"celebra":3733,"Cou":3734,"Or":3735,"Sie":3736,"ea":3737,"ek</w>":3738,"haus</w>":3739,"ival</w>":3740,"prin":3741,"putzt</w>":3742,"sor":3743,"tunnel</w>":3744,"alone</w>":3745,"rain":3746,"gegneri":3747,"urch</w>":3748,"door":3749,"life</w>":3750,"leg</w>":3751,"formi":3752,"geln</w>":3753,"brightly</w>":3754,"chteten</w>":3755,"schauk":3756,"faces</w>":3757,"clown</w>":3758,"eiten</w>":3759,"collar</w>":3760,"helping</w>":3761,"mann</w>":3762,"leather</w>":3763,"Meer":3764,"kurz</w>":3765,"umbrellas</w>":3766,"foreground</w>":3767,"untersu":3768,"gym</w>":3769,"Garten</w>":3770,"gleich</w>":3771,"artist</w>":3772,"repariert</w>":3773,"Jugendlicher</w>":3774,"Construction</w>":3775,"Backstein":3776,"musicians</w>":3777,"swim</w>":3778,"Vordergrund</w>":3779,"Schreibtisch</w>":3780,"Bre":3781,"Rad</w>":3782,"Sie</w>":3783,"asleep</w>":3784,"bis</w>":3785,"eys</w>":3786,"gling</w>":3787,"gluck":3788,"ion</w>":3789,"kau":3790,"ners</w>":3791,"unch</w>":3792,"stam":3793,"ord":3794,"bedi":3795,"gebiet</w>":3796,"Sta":3797,"lif":3798,"Schil":3799,"Schatten</w>":3800,"legs</w>":3801,"The":3802,"strecke</w>":3803,"skate</w>":3804,"gut</w>":3805,"Fahrradfahrer</w>":3806,"farbene</w>":3807,"gekleidetes</w>":3808,"voll</w>":3809,"vollen</w>":3810,"pres":3811,"giant</w>":3812,"meat</w>":3813,"ganz</w>":3814,"Kuchen</w>":3815,"Party</w>":3816,"fullten</w>":3817,"hellhauti":3818,"kurzer</w>":3819,"enjoy</w>":3820,"headphones</w>":3821,"Tank":3822,"Cowboy</w>":3823,"wheel</w>":3824,"Sandalen</w>":3825,"gegeneinander</w>":3826,"Sicher":3827,"Schnau":3828,"amerikanische</w>":3829,"Cowboy":3830,"Bowling":3831,"verschiedene</w>":3832,"daugh":3833,"electric</w>":3834,"Hoo":3835,"Kran":3836,"Mon":3837,"Sal":3838,"Tu":3839,"bat":3840,"bat</w>":3841,"ciert</w>":3842,"cafe</w>":3843,"eben</w>":3844,"gern</w>":3845,"hund</w>":3846,"mm</w>":3847,"nam":3848,"pru":3849,"za":3850,"ann":3851,"ans":3852,"ents</w>":3853,"schutt":3854,"wears</w>":3855,"cked</w>":3856,"lippe</w>":3857,"among</w>":3858,"groc":3859,"ward</w>":3860,"washing</w>":3861,"makes</w>":3862,"hinter":3863,"heav":3864,"lassen</w>":3865,"stadium</w>":3866,"sail":3867,"mud</w>":3868,"Mobil":3869,"office</w>":3870,"vice</w>":3871,"steigen</w>":3872,"hangen</w>":3873,"medi":3874,"beige</w>":3875,"Kunden</w>":3876,"bedeckt</w>":3877,"asiatisches</w>":3878,"telefon</w>":3879,"verkaufen</w>":3880,"falling</w>":3881,"Roller</w>":3882,"passing</w>":3883,"Last":3884,"hood</w>":3885,"golf</w>":3886,"custom":3887,"sandals</w>":3888,"Hals":3889,"Skateboard":3890,"swings</w>":3891,"balanciert</w>":3892,"Fahrradern</w>":3893,"aarige</w>":3894,"Footballspieler</w>":3895,"jemandem</w>":3896,"Einkaufswagen</w>":3897,"Glas":3898,"Kapuz":3899,"Schieds":3900,"Band":3901,"Flei":3902,"Gri":3903,"Glas</w>":3904,"Lau":3905,"No":3906,"Netz</w>":3907,"ften</w>":3908,"gehen":3909,"iger</w>":3910,"jug":3911,"pier</w>":3912,"swim":3913,"wunder":3914,"zel":3915,"chi":3916,"the":3917,"alm</w>":3918,"allow</w>":3919,"eiden</w>":3920,"utter":3921,"Stein</w>":3922,"Stiefeln</w>":3923,"Schi":3924,"toys</w>":3925,"guitar":3926,"Fell</w>":3927,"cloth</w>":3928,"winkt</w>":3929,"held</w>":3930,"goal</w>":3931,"friend</w>":3932,"Pferden</w>":3933,"Erde</w>":3934,"korb</w>":3935,"korde":3936,"musical</w>":3937,"fallt</w>":3938,"hiking</w>":3939,"heads</w>":3940,"reiten</w>":3941,"accor":3942,"kusst</w>":3943,"gegenuber</w>":3944,"officers</w>":3945,"photographer</w>":3946,"skiing</w>":3947,"Akkorde":3948,"multicolored</w>":3949,"chinesi":3950,"schmutz":3951,"canoe</w>":3952,"Badehose</w>":3953,"particip":3954,"doorway</w>":3955,"Schiedsrichter</w>":3956,"Kla":3957,"Sau":3958,"Ter":3959,"Top":3960,"Wur":3961,"gri":3962,"ro</w>":3963,"sco":3964,"zed</w>":3965,"inclu":3966,"church</w>":3967,"rasi":3968,"enter</w>":3969,"gewi":3970,"dig":3971,"tie":3972,"traff":3973,"Geschaft":3974,"ics</w>":3975,"aufger":3976,"throws</w>":3977,"heit":3978,"heben</w>":3979,"video</w>":3980,"voll":3981,"Angel":3982,"orangefarbenem</w>":3983,"picking</w>":3984,"leash</w>":3985,"males</w>":3986,"hellbrauner</w>":3987,"Kunstler</w>":3988,"stellung</w>":3989,"Tennis</w>":3990,"komp":3991,"Schuler</w>":3992,"Schulter</w>":3993,"drawing</w>":3994,"Snowboard</w>":3995,"teenage</w>":3996,"reaching</w>":3997,"Felswand</w>":3998,"tattoo</w>":3999,"Surfbrett</w>":4000,"laptop</w>":4001,"Klassenzimmer</w>":4002,"Kajak</w>":4003,"dirty</w>":4004,"owier":4005,"barefoot</w>":4006,"profession":4007,"Mobiltelefon</w>":4008,"Halsband</w>":4009,"accordion</w>":4010,"Es</w>":4011,"Reit":4012,"fun":4013,"gh</w>":4014,"kin":4015,"nei":4016,"pati":4017,"ta</w>":4018,"vel</w>":4019,"armen</w>":4020,"stro":4021,"laund":4022,"mid</w>":4023,"ator</w>":4024,"shallow</w>":4025,"bow</w>":4026,"geschaf":4027,"digging</w>":4028,"locks</w>":4029,"Stand</w>":4030,"ersk":4031,"Schlitten</w>":4032,"tiert</w>":4033,"Person":4034,"move</w>":4035,"Oberteilen</w>":4036,"Hohe</w>":4037,"performance</w>":4038,"Motorra":4039,"Schlager</w>":4040,"follo":4041,"below</w>":4042,"lachelnde</w>":4043,"belebte</w>":4044,"Loch</w>":4045,"Groß":4046,"Blau</w>":4047,"Hochzeit":4048,"Chinese</w>":4049,"unbefestigten</w>":4050,"BMX</w>":4051,"daughter</w>":4052,"Kapuzen":4053,"traffic</w>":4054,"Bein</w>":4055,"Ele":4056,"For":4057,"Fall":4058,"Jap":4059,"Ke":4060,"Qu":4061,"Wi":4062,"bild</w>":4063,"cat</w>":4064,"dro":4065,"dran":4066,"ear":4067,"fur":4068,"hammer</w>":4069,"ler":4070,"ober":4071,"pair</w>":4072,"sy":4073,"sz":4074,"sei":4075,"seines</w>":4076,"tub":4077,"teln</w>":4078,"wein":4079,"stop":4080,"redet</w>":4081,"enter":4082,"schuh</w>":4083,"ond":4084,"atop</w>":4085,"bewer":4086,"ols</w>":4087,"ssenen</w>":4088,"doors</w>":4089,"eter</w>":4090,"new</w>":4091,"Schuhe</w>":4092,"tal</w>":4093,"make":4094,"durchs</w>":4095,"moving</w>":4096,"gucken</w>":4097,"davor</w>":4098,"raum</w>":4099,"hair":4100,"kick</w>":4101,"Base</w>":4102,"susp":4103,"tea":4104,"studio</w>":4105,"dancers</w>":4106,"zeigen</w>":4107,"schlager</w>":4108,"brea":4109,"aussieht</w>":4110,"steigt</w>":4111,"jog":4112,"gives</w>":4113,"Innen":4114,"Bei</w>":4115,"microscope</w>":4116,"catching</w>":4117,"catches</w>":4118,"passes</w>":4119,"upside</w>":4120,"Pick":4121,"ulptur</w>":4122,"nahme</w>":4123,"Tochter</w>":4124,"Kanu</w>":4125,"club</w>":4126,"shovel</w>":4127,"leuchtend</w>":4128,"relaxing</w>":4129,"hugging</w>":4130,"gelegt</w>":4131,"Militar":4132,"weibliche</w>":4133,"Sicherheit":4134,"Ecke</w>":4135,"Jahr":4136,"ag":4137,"ga</w>":4138,"gie":4139,"ka</w>":4140,"kre":4141,"lone</w>":4142,"llen</w>":4143,"sat":4144,"sled</w>":4145,"erin":4146,"aren":4147,"stor":4148,"stunt</w>":4149,"rob":4150,"schauf":4151,"schild</w>":4152,"wed</w>":4153,"ird</w>":4154,"atta":4155,"bekleid":4156,"rick":4157,"sper":4158,"bly</w>":4159,"gepar":4160,"adlocks</w>":4161,"Schlange</w>":4162,"deck</w>":4163,"deep</w>":4164,"bereich</w>":4165,"board":4166,"paved</w>":4167,"worfen</w>":4168,"fun</w>":4169,"shows</w>":4170,"ehrt</w>":4171,"vorbe":4172,"Mounta":4173,"nav":4174,"offnet</w>":4175,"Ski</w>":4176,"treppe</w>":4177,"resting</w>":4178,"zusammen":4179,"climb</w>":4180,"chef</w>":4181,"leaping</w>":4182,"sleeps</w>":4183,"drum</w>":4184,"self</w>":4185,"passen":4186,"Nach":4187,"flies</w>":4188,"prepare</w>":4189,"Tischen</w>":4190,"verschiedenen</w>":4191,"Christmas</w>":4192,"Telefon</w>":4193,"Schaufen":4194,"Kreis</w>":4195,"Lebensmittel":4196,"Weihnachts":4197,"Spiegel</w>":4198,"Laptop</w>":4199,"sweeping</w>":4200,"gepflasterten</w>":4201,"Schnauze</w>":4202,"Kranken":4203,"Mountain":4204,"Ga":4205,"Wu":4206,"Zah":4207,"cts</w>":4208,"esc":4209,"funf</w>":4210,"hr</w>":4211,"hout</w>":4212,"kra":4213,"key</w>":4214,"ktion</w>":4215,"sem</w>":4216,"za</w>":4217,"int":4218,"inten":4219,"anten</w>":4220,"lab</w>":4221,"bel</w>":4222,"risten</w>":4223,"boun":4224,"ading</w>":4225,"eth</w>":4226,"Stir":4227,"Strand":4228,"bad</w>":4229,"wards</w>":4230,"coats</w>":4231,"tig":4232,"tig</w>":4233,"halle</w>":4234,"destri":4235,"benen</w>":4236,"seum</w>":4237,"entation</w>":4238,"formal</w>":4239,"part</w>":4240,"teeth</w>":4241,"Baume</w>":4242,"turn</w>":4243,"scen":4244,"scaff":4245,"singer</w>":4246,"Luftball":4247,"tricks</w>":4248,"Taschen</w>":4249,"Tepp":4250,"exc":4251,"Mikroskop</w>":4252,"appro":4253,"Schultern</w>":4254,"garden</w>":4255,"kussen</w>":4256,"hoodie</w>":4257,"geschlo":4258,"Rennstrecke</w>":4259,"conversing</w>":4260,"stehende</w>":4261,"pond</w>":4262,"Cheerlead":4263,"photograph</w>":4264,"farbenfrohen</w>":4265,"salon</w>":4266,"sculpture</w>":4267,"lilafarbenen</w>":4268,"desert</w>":4269,"kopfiger</w>":4270,"trunks</w>":4271,"Spaß</w>":4272,"Spring":4273,"Seifenblasen</w>":4274,"grasbewachsenen</w>":4275,"Tanktop</w>":4276,"Haufen</w>":4277,"Hula</w>":4278,"Kam":4279,"Lie":4280,"Tasse</w>":4281,"Wel":4282,"bran":4283,"belt</w>":4284,"cyclist</w>":4285,"dert</w>":4286,"ess":4287,"feu":4288,"hau":4289,"hur":4290,"ise</w>":4291,"jong":4292,"kauft</w>":4293,"mel":4294,"mten</w>":4295,"tire</w>":4296,"zaun</w>":4297,"infan":4298,"chern</w>":4299,"round</w>":4300,"engruppe</w>":4301,"ried</w>":4302,"spo":4303,"anda</w>":4304,"sitz</w>":4305,"erse":4306,"neath</w>":4307,"ppt</w>":4308,"entfer":4309,"nival</w>":4310,"gun</w>":4311,"reig":4312,"shoe</w>":4313,"gerat</w>":4314,"tory</w>":4315,"Arm":4316,"Spielfeld</w>":4317,"closed</w>":4318,"marsch":4319,"cold</w>":4320,"schlafen</w>":4321,"kocht</w>":4322,"dune</w>":4323,"protest":4324,"jogging</w>":4325,"balcon":4326,"complet":4327,"spee":4328,"Verkauf":4329,"Kai</w>":4330,"Kappe</w>":4331,"telescope</w>":4332,"plants</w>":4333,"Flasche</w>":4334,"mannlicher</w>":4335,"splashing</w>":4336,"underneath</w>":4337,"points</w>":4338,"Olymp":4339,"brunnen</w>":4340,"Gerust</w>":4341,"karate</w>":4342,"Video":4343,"wurde</w>":4344,"wrestling</w>":4345,"Fußganger":4346,"violetten</w>":4347,"Kirche</w>":4348,"Overall</w>":4349,"Pflanzen</w>":4350,"Zimmer</w>":4351,"Akkordeon</w>":4352,"Kamer":4353,"afro":4354,"cri":4355,"dschirm</w>":4356,"eat</w>":4357,"fs</w>":4358,"fahren":4359,"gate</w>":4360,"ima":4361,"keiten</w>":4362,"lauf":4363,"zten</w>":4364,"cho":4365,"ariges</w>":4366,"schone</w>":4367,"atisch</w>":4368,"bemalt</w>":4369,"without</w>":4370,"rie":4371,"gesau":4372,"losen</w>":4373,"legen</w>":4374,"tigt</w>":4375,"tocross</w>":4376,"versch":4377,"magaz":4378,"waters</w>":4379,"langh":4380,"posit":4381,"boards</w>":4382,"ative</w>":4383,"eless</w>":4384,"gage</w>":4385,"herunter":4386,"mark":4387,"unterwegs</w>":4388,"stuff":4389,"dances</w>":4390,"Hunden</w>":4391,"baren</w>":4392,"books</w>":4393,"project</w>":4394,"linie</w>":4395,"Jeans":4396,"Kuste</w>":4397,"fullt</w>":4398,"hellen</w>":4399,"Fisch":4400,"Helmen</w>":4401,"stellen</w>":4402,"selves</w>":4403,"Restauran":4404,"festival</w>":4405,"cane</w>":4406,"grauer</w>":4407,"kappe</w>":4408,"curly</w>":4409,"Black</w>":4410,"Old</w>":4411,"orient":4412,"Parkbank</w>":4413,"aussehende</w>":4414,"shoulders</w>":4415,"Freunden</w>":4416,"Freunde</w>":4417,"Strecke</w>":4418,"Hinder":4419,"themselves</w>":4420,"gegnerischen</w>":4421,"schaukelt</w>":4422,"Fleisch</w>":4423,"including</w>":4424,"Din":4425,"Gasse</w>":4426,"Hor":4427,"Jun":4428,"Lk":4429,"Lat":4430,"Pin":4431,"Small</w>":4432,"Teich</w>":4433,"butt":4434,"crying</w>":4435,"ep":4436,"hula</w>":4437,"jam":4438,"pit</w>":4439,"yed</w>":4440,"anzugen</w>":4441,"stur":4442,"alie</w>":4443,"racket</w>":4444,"ental</w>":4445,"sicht</w>":4446,"oned</w>":4447,"richtet</w>":4448,"oped</w>":4449,"opposing</w>":4450,"Steine</w>":4451,"lift</w>":4452,"rum</w>":4453,"ness</w>":4454,"umarmen</w>":4455,"trampol":4456,"taken</w>":4457,"skin":4458,"holt</w>":4459,"fahrzeug</w>":4460,"buck":4461,"seat</w>":4462,"boarding</w>":4463,"carnival</w>":4464,"damit</w>":4465,"teil":4466,"schaukel</w>":4467,"fight</w>":4468,"mural</w>":4469,"asiatisch</w>":4470,"bicyclist</w>":4471,"kostum</w>":4472,"wooded</w>":4473,"leader</w>":4474,"schneiden</w>":4475,"Schwimmbrille</w>":4476,"Gesicht":4477,"Marathon</w>":4478,"straw</w>":4479,"pulled</w>":4480,"matching</w>":4481,"Maske</w>":4482,"crosswalk</w>":4483,"felsi":4484,"Gegenstand":4485,"Trampol":4486,"hoop</w>":4487,"Sachen</w>":4488,"stehenden</w>":4489,"Flugzeug</w>":4490,"Schutzhelmen</w>":4491,"Schaufel</w>":4492,"Farben</w>":4493,"hiker</w>":4494,"bringt</w>":4495,"langem</w>":4496,"Balk":4497,"Workers</w>":4498,"farbigen</w>":4499,"produce</w>":4500,"individuals</w>":4501,"Dieser</w>":4502,"circle</w>":4503,"beleuchteten</w>":4504,"Geige</w>":4505,"entspannt</w>":4506,"dinner</w>":4507,"Katze</w>":4508,"bedient</w>":4509,"Stadion</w>":4510,"Lastwagen</w>":4511,"Kapuzenpul":4512,"makeup</w>":4513,"trampoline</w>":4514,"Trampolin</w>":4515,"AT":4516,"Bul":4517,"Ex":4518,"Essen":4519,"Gru":4520,"Hei":4521,"Hang</w>":4522,"Rand</w>":4523,"cau":4524,"center</w>":4525,"dol":4526,"ial</w>":4527,"kte</w>":4528,"swi":4529,"vely</w>":4530,"infla":4531,"inspec":4532,"unde</w>":4533,"erwachsen":4534,"auto</w>":4535,"rest</w>":4536,"raft</w>":4537,"weg":4538,"sich":4539,"bec":4540,"ble":4541,"geben</w>":4542,"lich":4543,"Schw":4544,"blast</w>":4545,"trash</w>":4546,"veranstaltung</w>":4547,"verwendet</w>":4548,"ice":4549,"Spe":4550,"Spit":4551,"Spei":4552,"sewing</w>":4553,"nose</w>":4554,"sucht</w>":4555,"igem</w>":4556,"surface</w>":4557,"picnic</w>":4558,"performer</w>":4559,"Berge</w>":4560,"covering</w>":4561,"Schlamm</w>":4562,"Kaffee</w>":4563,"Tanz</w>":4564,"Tanzer</w>":4565,"Eisho":4566,"Skiern</w>":4567,"Fußballspiel</w>":4568,"knee</w>":4569,"attempts</w>":4570,"Flaggen</w>":4571,"Baumstam":4572,"members</w>":4573,"Kopfhorer</w>":4574,"Schussel</w>":4575,"hupft</w>":4576,"partment</w>":4577,"Zeichen</w>":4578,"jongliert</w>":4579,"infant</w>":4580,"stuffed</w>":4581,"Cro":4582,"Klippe</w>":4583,"Mahl":4584,"Pe":4585,"Per":4586,"Rett":4587,"gs":4588,"gun":4589,"grau</w>":4590,"jub":4591,"ming</w>":4592,"mself</w>":4593,"nur</w>":4594,"pet":4595,"pers</w>":4596,"que</w>":4597,"xi</w>":4598,"aner</w>":4599,"erleader</w>":4600,"rechts</w>":4601,"third</w>":4602,"rasse</w>":4603,"lays</w>":4604,"wea":4605,"onal":4606,"aters</w>":4607,"bever":4608,"rier</w>":4609,"spit":4610,"blouse</w>":4611,"uren</w>":4612,"opening</w>":4613,"neck</w>":4614,"Scha":4615,"lege</w>":4616,"cow</w>":4617,"tomat":4618,"These</w>":4619,"weise</w>":4620,"oment</w>":4621,"skis</w>":4622,"skates</w>":4623,"ringen</w>":4624,"seite</w>":4625,"not</w>":4626,"genen</w>":4627,"saw</w>":4628,"saxoph":4629,"peri":4630,"help</w>":4631,"horen</w>":4632,"nap</w>":4633,"dancer</w>":4634,"zeugen</w>":4635,"Anzugen</w>":4636,"booth</w>":4637,"goes</w>":4638,"links</w>":4639,"pushes</w>":4640,"schießt</w>":4641,"pipe</w>":4642,"Teams</w>":4643,"chases</w>":4644,"leicht</w>":4645,"driver</w>":4646,"botto":4647,"himself</w>":4648,"Treppen":4649,"grillt</w>":4650,"lachelnder</w>":4651,"dunkler</w>":4652,"square</w>":4653,"brush</w>":4654,"wandern</w>":4655,"Landschaft</w>":4656,"Golf":4657,"Clown</w>":4658,"slope</w>":4659,"softball</w>":4660,"erblades</w>":4661,"Feldweg</w>":4662,"Couch</w>":4663,"Hoop</w>":4664,"Pickni":4665,"destrians</w>":4666,"balcony</w>":4667,"Lond":4668,"Teller</w>":4669,"Wander":4670,"eth":4671,"ear</w>":4672,"fly</w>":4673,"gon</w>":4674,"glie":4675,"gitar":4676,"hit":4677,"ies</w>":4678,"li</w>":4679,"lunch</w>":4680,"indoor</w>":4681,"ann</w>":4682,"ano</w>":4683,"stil":4684,"robe</w>":4685,"ature</w>":4686,"bekommt</w>":4687,"gebo":4688,"wohn":4689,"log</w>":4690,"uts</w>":4691,"aden</w>":4692,"Schaf":4693,"verfolgt</w>":4694,"device</w>":4695,"bent</w>":4696,"Geschen":4697,"wich</w>":4698,"stucke</w>":4699,"Asiate</w>":4700,"Außen":4701,"tub</w>":4702,"Beg":4703,"steckt</w>":4704,"hellblauen</w>":4705,"Kopftuch</w>":4706,"puts</w>":4707,"pulls</w>":4708,"schirmen</w>":4709,"Metall</w>":4710,"Objekt</w>":4711,"Ausrustung</w>":4712,"sandy</w>":4713,"karier":4714,"speaks</w>":4715,"fotografieren</w>":4716,"aussehender</w>":4717,"wandert</w>":4718,"dunkelhautige</w>":4719,"reparieren</w>":4720,"Football":4721,"boxes</w>":4722,"athlete</w>":4723,"Instrumenten</w>":4724,"shooting</w>":4725,"beruhrt</w>":4726,"barfuß</w>":4727,"Fahnen</w>":4728,"staircase</w>":4729,"Wind":4730,"advertis":4731,"Cowboyhut</w>":4732,"schuttelt</w>":4733,"Grima":4734,"komplet":4735,"bewerb</w>":4736,"arena</w>":4737,"Wuste</w>":4738,"geschlossenen</w>":4739,"Lkw</w>":4740,"button</w>":4741,"12</w>":4742,"20":4743,"Beinen</w>":4744,"Flie":4745,"Gur":4746,"Hau":4747,"Tunnel</w>":4748,"ast</w>":4749,"agi":4750,"bauen</w>":4751,"es":4752,"fig":4753,"hub":4754,"haus":4755,"ischen</w>":4756,"ktor</w>":4757,"kahl":4758,"ner":4759,"pet</w>":4760,"sn":4761,"ton":4762,"trei":4763,"vement</w>":4764,"zes</w>":4765,"unge":4766,"elf</w>":4767,"schwe":4768,"schuhe</w>":4769,"scheibe</w>":4770,"ond</w>":4771,"atting</w>":4772,"richtung</w>":4773,"boats</w>":4774,"gezogen</w>":4775,"down":4776,"opfen</w>":4777,"etes</w>":4778,"Steinen</w>":4779,"Schu":4780,"spielerin</w>":4781,"hockt</w>":4782,"aufnahme</w>":4783,"nice</w>":4784,"sprinkl":4785,"fac":4786,"geri":4787,"entlang":4788,"sci":4789,"scape</w>":4790,"herum":4791,"muck</w>":4792,"Handtasche</w>":4793,"Skater</w>":4794,"uberfullten</w>":4795,"flasche</w>":4796,"Tex":4797,"Veranda</w>":4798,"blocks</w>":4799,"drives</w>":4800,"enjoys</w>":4801,"verkaufer</w>":4802,"Nase</w>":4803,"overalls</w>":4804,"shaking</w>":4805,"golden</w>":4806,"gehalten</w>":4807,"ausgestre":4808,"Bilder</w>":4809,"Computer":4810,"wetsuit</w>":4811,"gymnast</w>":4812,"Instrumente</w>":4813,"statt</w>":4814,"reinigt</w>":4815,"Guy</w>":4816,"grocery</w>":4817,"Personengruppe</w>":4818,"Springbrunnen</w>":4819,"swims</w>":4820,"Mahlzeit</w>":4821,"Bi":4822,"Hu":4823,"Here</w>":4824,"Im</w>":4825,"Mull</w>":4826,"Rug":4827,"aks</w>":4828,"bare</w>":4829,"cer":4830,"camp":4831,"drit":4832,"ei</w>":4833,"fl":4834,"gla":4835,"glat":4836,"lers</w>":4837,"mes</w>":4838,"port</w>":4839,"tter":4840,"wns</w>":4841,"einzel":4842,"chal":4843,"erer</w>":4844,"ards</w>":4845,"arrow</w>":4846,"auch</w>":4847,"ited</w>":4848,"sten":4849,"refer":4850,"rack</w>":4851,"weste</w>":4852,"riert</w>":4853,"sprung</w>":4854,"gebl":4855,"utz</w>":4856,"amusi":4857,"ledge</w>":4858,"trav":4859,"tracks</w>":4860,"froh":4861,"stream</w>":4862,"deckt</w>":4863,"Sprun":4864,"see</w>":4865,"pot</w>":4866,"poster</w>":4867,"podium</w>":4868,"pouring</w>":4869,"mob":4870,"hinab</w>":4871,"happ":4872,"kicks</w>":4873,"fabri":4874,"gerin</w>":4875,"jean</w>":4876,"Box":4877,"heraus</w>":4878,"muster</w>":4879,"marching</w>":4880,"Pfo":4881,"Asiaten</w>":4882,"fingers</w>":4883,"bicyclists</w>":4884,"linken</w>":4885,"hangs</w>":4886,"puddle</w>":4887,"Pferde</w>":4888,"steep</w>":4889,"falls</w>":4890,"headed</w>":4891,"Tennisspieler</w>":4892,"garb</w>":4893,"shaving</w>":4894,"Older</w>":4895,"birds</w>":4896,"Plak":4897,"traditioneller</w>":4898,"pinkfarbenem</w>":4899,"Volley":4900,"teenagers</w>":4901,"waterfall</w>":4902,"gentlemen</w>":4903,"clear</w>":4904,"Wettkampf</w>":4905,"sheet</w>":4906,"aariger</w>":4907,"hikers</w>":4908,"Blatt</w>":4909,"bringen</w>":4910,"diesem</w>":4911,"porch</w>":4912,"pitcher</w>":4913,"khaki</w>":4914,"Hauses</w>":4915,"type</w>":4916,"Stroh":4917,"zeichnet</w>":4918,"wrapped</w>":4919,"liegenden</w>":4920,"Lederjacke</w>":4921,"cloudy</w>":4922,"Gelandemotorrad</w>":4923,"style</w>":4924,"Asiatin</w>":4925,"Salto</w>":4926,"heavy</w>":4927,"sailing</w>":4928,"customers</w>":4929,"Reiter</w>":4930,"laundry</w>":4931,"robes</w>":4932,"vorbeig":4933,"approa":4934,"reign</w>":4935,"felsigen</w>":4936,"London</w>":4937,"Dun":4938,"Neop":4939,"Off":4940,"Zeit</w>":4941,"dit":4942,"ddy</w>":4943,"fts</w>":4944,"fte</w>":4945,"fair</w>":4946,"flug":4947,"glas</w>":4948,"jo</w>":4949,"nassen</w>":4950,"pun":4951,"put</w>":4952,"palm</w>":4953,"sale</w>":4954,"vil":4955,"wie":4956,"inen</w>":4957,"char":4958,"erte</w>":4959,"stet</w>":4960,"repa":4961,"ended</w>":4962,"woh":4963,"lock":4964,"lots</w>":4965,"local</w>":4966,"utte</w>":4967,"oppo":4968,"rub":4969,"klein":4970,"Schm":4971,"sitzende</w>":4972,"tier</w>":4973,"blas":4974,"ood</w>":4975,"wascht</w>":4976,"skirts</w>":4977,"Geweh":4978,"sea</w>":4979,"aufblas":4980,"modi":4981,"moves</w>":4982,"brillen</w>":4983,"fashi":4984,"backyard</w>":4985,"mpe</w>":4986,"musta":4987,"colors</w>":4988,"helm</w>":4989,"ctions</w>":4990,"offer</w>":4991,"foreign</w>":4992,"Hunde":4993,"piano</w>":4994,"streich":4995,"checking</w>":4996,"schnell</w>":4997,"Straßenkunst":4998,"Erd":4999}