{"<pad>":0,"<sos>":1,"<eos>":2,"!":3,"\"":4,"#":5,"$":6,"%":7,"&":8,"'":9,"(":10,")":11,",":12,"-":13,".":14,"/":15,"0":16,"1":17,"2":18,"3":19,"4":20,"5":21,"6":22,"7":23,"8":24,"9":25,":":26,";":27,"=":28,"?":29,"A":30,"B":31,"C":32,"D":33,"E":34,"F":35,"G":36,"H":37,"I":38,"J":39,"K":40,"L":41,"M":42,"N":43,"O":44,"P":45,"Q":46,"R":47,"S":48,"T":49,"U":50,"V":51,"W":52,"X":53,"Y":54,"Z":55,"`":56,"a":57,"b":58,"c":59,"d":60,"e":61,"f":62,"g":63,"h":64,"i":65,"j":66,"k":67,"l":68,"m":69,"n":70,"o":71,"p":72,"q":73,"r":74,"s":75,"t":76,"u":77,"v":78,"w":79,"x":80,"y":81,"z":82,"«":83,"°":84,"»":85,"œ":86,"’":87,"S</w>":88,"y</w>":89,"t</w>":90,"r</w>":91,"e</w>":92,"d</w>":93,"s</w>":94,"g</w>":95,"u</w>":96,"o</w>":97,"n</w>":98,"l</w>":99,"c</w>":100,"h</w>":101,"k</w>":102,"a</w>":103,"i</w>":104,"p</w>":105,"M</w>":106,"m</w>":107,"b</w>":108,"f</w>":109,"T</w>":110,"x</w>":111,"w</w>":112,"7</w>":113,"4</w>":114,"5</w>":115,"C</w>":116,"E</w>":117,"z</w>":118,"=</w>":119,"°</w>":120,"8</w>":121,"D</w>":122,"#</w>":123,"6</w>":124,"v</w>":125,"F</w>":126,"A</w>":127,"O</w>":128,"3</w>":129,"'</w>":130,"N</w>":131,"0</w>":132,"j</w>":133,"U</w>":134,"L</w>":135,"(</w>":136,"R</w>":137,"P</w>":138,"q</w>":139,"!</w>":140,"’</w>":141,"1</w>":142,"V</w>":143,"9</w>":144,"I</w>":145,"J</w>":146,"Y</w>":147,"2</w>":148,"%</w>":149,"K</w>":150,"W</w>":151,":</w>":152,"`</w>":153,"«</w>":154,".</w>":155,"H</w>":156,"\"</w>":157,"&</w>":158,")</w>":159,",</w>":160,"Q</w>":161,"»</w>":162,"$</w>":163,"/</w>":164,"G</w>":165,"-</w>":166,"B</w>":167,"X</w>":168,"?</w>":169,";</w>":170,"an":171,"in":172,"es</w>":173,"ou":174,"ar":175,"ing</w>":176,"ne</w>":177,"en":178,"un</w>":179,"le</w>":180,"er":181,"in</w>":182,"om":183,"de</w>":184,"it":185,"re":186,"une</w>":187,"on</w>":188,"ch":189,"an</w>":190,"en</w>":191,"th":192,"is</w>":193,"on":194,"er</w>":195,"me</w>":196,"Un</w>":197,"ant</w>":198,"or":199,"st":200,"al":201,"eu":202,"et</w>":203,"at":204,"ve":205,"ro":206,"su":207,"il":208,"la":209,"ir":210,"the</w>":211,"em":212,"hom":213,"ra":214,"and</w>":215,"se</w>":216,"dan":217,"ent</w>":218,"de":219,"bl":220,"et":221,"ue</w>":222,"dans</w>":223,"sur</w>":224,"rou":225,"homme</w>":226,"man</w>":227,"as":228,"ave":229,"ri":230,"ge</w>":231,"avec</w>":232,"ea":233,"sh":234,"of</w>":235,"re</w>":236,"ol":237,"des</w>":238,"wit":239,"Une</w>":240,"el":241,"si":242,"with</w>":243,"te</w>":244,"au":245,"fem":246,"bo":247,"la</w>":248,"lo":249,"do":250,"eux</w>":251,"ai":252,"gar":253,"and":254,"to</w>":255,"at</w>":256,"es":257,"son":258,"wh":259,"wom":260,"ts</w>":261,"per":262,"ic":263,"femme</w>":264,"pla":265,"are</w>":266,"king</w>":267,"qu":268,"pe":269,"ac":270,"op":271,"shir":272,"cou":273,"grou":274,"bal":275,"ver":276,"wo</w>":277,"ti":278,"woman</w>":279,"ta":280,"shirt</w>":281,"tra":282,"ed</w>":283,"co":284,"out</w>":285,"oun":286,"li":287,"ite</w>":288,"jou":289,"par":290,"un":291,"mes</w>":292,"est</w>":293,"to":294,"ding</w>":295,"no":296,"ck</w>":297,"ss":298,"we":299,"Deux</w>":300,"que</w>":301,"ir</w>":302,"mar":303,"wal":304,"ople</w>":305,"Two</w>":306,"ille</w>":307,"les</w>":308,"pe</w>":309,"je":310,"nes</w>":311,"ting</w>":312,"ma":313,"po":314,"person":315,"aring</w>":316,"res</w>":317,"por":318,"eau</w>":319,"it</w>":320,"play":321,"ten":322,"ho":323,"ca":324,"wearing</w>":325,"che</w>":326,"fo":327,"son</w>":328,"people</w>":329,"wn</w>":330,"pl":331,"ers</w>":332,"pa":333,"sit":334,"ne":335,"eur</w>":336,"ass":337,"is":338,"ile</w>":339,"aut":340,"blan":341,"Th":342,"ble</w>":343,"um":344,"oung</w>":345,"ball</w>":346,"ch</w>":347,"bu":348,"red</w>":349,"white</w>":350,"our</w>":351,"bout</w>":352,"chi":353,"ere</w>":354,"ati":355,"regar":356,"gir":357,"le":358,"stand":359,"ce</w>":360,"vant</w>":361,"au</w>":362,"young</w>":363,"con":364,"bla":365,"pet":366,"rs</w>":367,"ont</w>":368,"enf":369,"be":370,"debout</w>":371,"vi":372,"black</w>":373,"dre":374,"his</w>":375,"personnes</w>":376,"sont</w>":377,"air</w>":378,"while</w>":379,"gu":380,"wat":381,"pho":382,"out":383,"ine</w>":384,"blue</w>":385,"tant</w>":386,"ther</w>":387,"ire</w>":388,"loo":389,"tu":390,"jeune</w>":391,"boy</w>":392,"andis</w>":393,"devant</w>":394,"eurs</w>":395,"hommes</w>":396,"tandis</w>":397,"du</w>":398,"ap":399,"fille</w>":400,"di":401,"pu":402,"am":403,"sitting</w>":404,"ens</w>":405,"al</w>":406,"fr":407,"ks</w>":408,"con</w>":409,"pi":410,"ds</w>":411,"ses</w>":412,"cu":413,"ors</w>":414,"girl</w>":415,"dog</w>":416,"ter":417,"groupe</w>":418,"garcon</w>":419,"assis</w>":420,"men</w>":421,"ba":422,"chien</w>":423,"gra":424,"hol":425,"ree</w>":426,"standing</w>":427,"Des</w>":428,"stre":429,"fai":430,"playing</w>":431,"ants</w>":432,"qu</w>":433,"age</w>":434,"be</w>":435,"cour":436,"chil":437,"by</w>":438,"sk":439,"side</w>":440,"tes</w>":441,"il</w>":442,"ss</w>":443,"che":444,"group</w>":445,"for":446,"rue</w>":447,"fi":448,"ag":449,"rouge</w>":450,"mo":451,"eu</w>":452,"car":453,"street</w>":454,"ack":455,"down</w>":456,"vet":457,"mu":458,"ard</w>":459,"ve</w>":460,"walking</w>":461,"portant</w>":462,"ee</w>":463,"one</w>":464,"noir</w>":465,"as</w>":466,"her</w>":467,"front</w>":468,"gr":469,"blanc</w>":470,"ste</w>":471,"ru":472,"pour</w>":473,"du":474,"der</w>":475,"train</w>":476,"the":477,"foo":478,"holding</w>":479,"other</w>":480,"gh":481,"sm":482,"sa":483,"som":484,"bi":485,"march":486,"com":487,"gs</w>":488,"table</w>":489,"riere</w>":490,"dant</w>":491,"lon":492,"sou":493,"cro":494,"gens</w>":495,"ff":496,"pre":497,"rois</w>":498,"col":499,"ange</w>":500,"water</w>":501,"run":502,"pro":503,"roug":504,"wa":505,"ke</w>":506,"oc":507,"all</w>":508,"ette</w>":509,"ying</w>":510,"bleu</w>":511,"ment</w>":512,"ver</w>":513,"ping</w>":514,"femmes</w>":515,"The</w>":516,"wor":517,"sc":518,"fait</w>":519,"cote</w>":520,"gre":521,"tle</w>":522,"yc":523,"man":524,"assi":525,"pr":526,"lu":527,"enfant</w>":528,"enfants</w>":529,"sant</w>":530,"ise</w>":531,"ent":532,"jum":533,"up</w>":534,"hi":535,"se":536,"sa</w>":537,"ents</w>":538,"chem":539,"qui</w>":540,"orange</w>":541,"chev":542,"bas":543,"looking</w>":544,"bro":545,"ill":546,"ex":547,"mon":548,"green</w>":549,"An</w>":550,"women</w>":551,"der":552,"tient</w>":553,"ittle</w>":554,"lar":555,"for</w>":556,"sno":557,"cam":558,"par</w>":559,"petit</w>":560,"deux</w>":561,"low</w>":562,"walk</w>":563,"ple</w>":564,"tal":565,"br":566,"ture</w>":567,"nd</w>":568,"regarde</w>":569,"autre</w>":570,"Trois</w>":571,"st</w>":572,"outside</w>":573,"child</w>":574,"ie</w>":575,"Three</w>":576,"ear</w>":577,"aux</w>":578,"little</w>":579,"large</w>":580,"ground</w>":581,"rough</w>":582,"cas":583,"joue</w>":584,"elle</w>":585,"through</w>":586,"sur":587,"each</w>":588,"skat":589,"gla":590,"sw":591,"pres</w>":592,"guit":593,"ha":594,"bar":595,"vel":596,"vo":597,"ci":598,"clo":599,"fro":600,"ge":601,"tro":602,"photo</w>":603,"ellow</w>":604,"ettes</w>":605,"im":606,"stu":607,"ga":608,"dent</w>":609,"ps</w>":610,"its</w>":611,"ys</w>":612,"shor":613,"marche</w>":614,"yellow</w>":615,"brown</w>":616,"tenant</w>":617,"cti":618,"two</w>":619,"bat":620,"dren</w>":621,"sau":622,"personne</w>":623,"ches</w>":624,"phone</w>":625,"fac":626,"des":627,"pan":628,"ls</w>":629,"ct":630,"dy</w>":631,"vetu</w>":632,"sho":633,"jouant</w>":634,"blon":635,"rea":636,"bri":637,"bleu":638,"hat</w>":639,"ement</w>":640,"dress":641,"eil</w>":642,"from</w>":643,"ja":644,"their</w>":645,"ly</w>":646,"ol</w>":647,"ght</w>":648,"ter</w>":649,"into</w>":650,"board</w>":651,"ets</w>":652,"ning</w>":653,"back":654,"illes</w>":655,"buil":656,"foot":657,"bati":658,"ob":659,"person</w>":660,"jeu":661,"eau":662,"ele":663,"va":664,"sse</w>":665,"itu":666,"ans</w>":667,"mi":668,"ige</w>":669,"ques</w>":670,"children</w>":671,"nex":672,"chemise</w>":673,"jaune</w>":674,"next</w>":675,"thing</w>":676,"sol":677,"fou":678,"jeunes</w>":679,"cor":680,"vers</w>":681,"or</w>":682,"pin":683,"sses</w>":684,"hors</w>":685,"ation</w>":686,"velo</w>":687,"pen":688,"dressed</w>":689,"leurs</w>":690,"small</w>":691,"fu":692,"crow":693,"jack":694,"cho":695,"tr":696,"quel":697,"vert</w>":698,"ons</w>":699,"football</w>":700,"lun":701,"pic":702,"petite</w>":703,"jouent</w>":704,"over</w>":705,"ck":706,"ving</w>":707,"uni":708,"ound</w>":709,"ling</w>":710,"lors</w>":711,"arriere</w>":712,"regardant</w>":713,"toir</w>":714,"ig":715,"building</w>":716,"ete</w>":717,"dehors</w>":718,"plan</w>":719,"trot":720,"our":721,"Pe":722,"batiment</w>":723,"ban":724,"tout</w>":725,"ins</w>":726,"long</w>":727,"stand</w>":728,"riding</w>":729,"form":730,"running</w>":731,"eld</w>":732,"esc":733,"lunettes</w>":734,"blanche</w>":735,"rest":736,"People</w>":737,"pol":738,"bre</w>":739,"hin":740,"hea":741,"near</w>":742,"pren":743,"jacket</w>":744,"costu":745,"veste</w>":746,"sem":747,"ven":748,"another</w>":749,"around</w>":750,"couple</w>":751,"per</w>":752,"sing</w>":753,"sus</w>":754,"side":755,"ball":756,"assise</w>":757,"saute</w>":758,"cer</w>":759,"trottoir</w>":760,"iture</w>":761,"dessus</w>":762,"cla":763,"tent</w>":764,"irs</w>":765,"face</w>":766,"dd":767,"ier</w>":768,"court</w>":769,"ging</w>":770,"te":771,"bou":772,"regardent</w>":773,"faisant</w>":774,"mic":775,"some</w>":776,"cheveux</w>":777,"bor":778,"field</w>":779,"beach</w>":780,"her":781,"mat":782,"sidewalk</w>":783,"cyc":784,"met":785,"foule</w>":786,"porte</w>":787,"trava":788,"skate":789,"glasses</w>":790,"cit":791,"stru":792,"plu":793,"oo":794,"asi":795,"ene</w>":796,"way</w>":797,"souri":798,"ching</w>":799,"marchant</w>":800,"derriere</w>":801,"plage</w>":802,"crowd</w>":803,"of":804,"stands</w>":805,"equ":806,"bleue</w>":807,"ves</w>":808,"hind</w>":809,"ded</w>":810,"ice</w>":811,"chap":812,"ack</w>":813,"neige</w>":814,"sits</w>":815,"jumping</w>":816,"pink</w>":817,"camer":818,"onn":819,"behind</w>":820,"tor":821,"top</w>":822,"pass":823,"some":824,"ction</w>":825,"ni":826,"snow</w>":827,"cli":828,"fri":829,"rant</w>":830,"semble</w>":831,"grass</w>":832,"pas":833,"musi":834,"bask":835,"hair</w>":836,"spe":837,"can":838,"iling</w>":839,"Le</w>":840,"dr":841,"main</w>":842,"bike</w>":843,"str":844,"girls</w>":845,"background</w>":846,"ad</w>":847,"ju":848,"ballon</w>":849,"sieurs</w>":850,"camera</w>":851,"ieur</w>":852,"rose</w>":853,"Qu":854,"ad":855,"icyc":856,"dul":857,"blond</w>":858,"ar</w>":859,"pat":860,"quelque</w>":861,"ser":862,"ler</w>":863,"gro":864,"ron</w>":865,"chose</w>":866,"grand</w>":867,"adul":868,"lot</w>":869,"ong</w>":870,"atre</w>":871,"ki":872,"city</w>":873,"autres</w>":874,"filles</w>":875,"rap":876,"player</w>":877,"brun</w>":878,"lan":879,"bicyc":880,"dis":881,"el</w>":882,"ic</w>":883,"Man</w>":884,"fon":885,"pou":886,"play</w>":887,"bre":888,"tenue</w>":889,"da":890,"nis</w>":891,"looks</w>":892,"bra":893,"park</w>":894,"snow":895,"herbe</w>":896,"soc":897,"tre</w>":898,"cer":899,"equi":900,"tri":901,"pie":902,"wall</w>":903,"ade</w>":904,"ion</w>":905,"marchent</w>":906,"eaux</w>":907,"saut":908,"dogs</w>":909,"ben":910,"verte</w>":911,"chiens</w>":912,"dress</w>":913,"robe</w>":914,"veral</w>":915,"off</w>":916,"eball</w>":917,"sun":918,"ped</w>":919,"chan":920,"that</w>":921,"boar":922,"chapeau</w>":923,"fen":924,"woo":925,"noire</w>":926,"tennis</w>":927,"sous</w>":928,"ounta":929,"jo":930,"ville</w>":931,"rain</w>":932,"asiati":933,"baseball</w>":934,"restau":935,"ger</w>":936,"wing</w>":937,"mail":938,"course</w>":939,"mil":940,"terieur</w>":941,"scene</w>":942,"fa":943,"Asi":944,"ean</w>":945,"hor":946,"mur</w>":947,"go":948,"om</w>":949,"costume</w>":950,"hel":951,"gne</w>":952,"sent</w>":953,"talking</w>":954,"restaurant</w>":955,"ocean</w>":956,"something</w>":957,"cing</w>":958,"hau":959,"pose</w>":960,"autour</w>":961,"stri":962,"ate</w>":963,"ating</w>":964,"boys</w>":965,"short</w>":966,"eric":967,"cher</w>":968,"atten":969,"older</w>":970,"sal":971,"leur</w>":972,"lea":973,"ats</w>":974,"walks</w>":975,"tic":976,"along</w>":977,"balle</w>":978,"soleil</w>":979,"skateboard</w>":980,"food</w>":981,"ll</w>":982,"met</w>":983,"flo":984,"ore</w>":985,"soccer</w>":986,"hand":987,"guitar</w>":988,"font</w>":989,"cons</w>":990,"working</w>":991,"lady</w>":992,"escal":993,"win":994,"toge":995,"together</w>":996,"sin":997,"guitare</w>":998,"din":999,"unifor":1000,"travaill":1001,"suit</w>":1002,"garcons</w>":1003,"perform":1004,"ph":1005,"hab":1006,"Se":1007,"int</w>":1008,"parc</w>":1009,"plan":1010,"dir":1011,"ram":1012,"old</w>":1013,"kers</w>":1014,"euse</w>":1015,"gray</w>":1016,"ils</w>":1017,"viol":1018,"nee</w>":1019,"sac</w>":1020,"assises</w>":1021,"ou</w>":1022,"bois</w>":1023,"micro":1024,"ale</w>":1025,"smiling</w>":1026,"sig":1027,"photo":1028,"car</w>":1029,"has</w>":1030,"tre":1031,"tele":1032,"eat</w>":1033,"plays</w>":1034,"surf":1035,"game</w>":1036,"lant</w>":1037,"bles</w>":1038,"kes</w>":1039,"road</w>":1040,"rying</w>":1041,"picture</w>":1042,"fla":1043,"nu":1044,"mag":1045,"tou":1046,"ces</w>":1047,"ensemble</w>":1048,"ey</w>":1049,"quette</w>":1050,"shorts</w>":1051,"hand</w>":1052,"marron</w>":1053,"mb":1054,"teau</w>":1055,"terre</w>":1056,"terrain</w>":1057,"ouse</w>":1058,"cre":1059,"room</w>":1060,"sit</w>":1061,"ddle</w>":1062,"Asian</w>":1063,"dre</w>":1064,"prepar":1065,"ray":1066,"boo":1067,"holds</w>":1068,"pantal":1069,"ro</w>":1070,"line</w>":1071,"jean</w>":1072,"pants</w>":1073,"cham":1074,"til":1075,"head</w>":1076,"Quatre</w>":1077,"jour":1078,"fe":1079,"strum":1080,"Four</w>":1081,"gars</w>":1082,"joueur</w>":1083,"bench</w>":1084,"him</w>":1085,"hu":1086,"spect":1087,"vol":1088,"instrum":1089,"banc</w>":1090,"match</w>":1091,"maillot</w>":1092,"tea":1093,"runs</w>":1094,"ements</w>":1095,"cycli":1096,"vetue</w>":1097,"acro":1098,"stage</w>":1099,"haut</w>":1100,"Plu":1101,"Plusieurs</w>":1102,"pur":1103,"swe":1104,"ande</w>":1105,"carrying</w>":1106,"lui</w>":1107,"ountain</w>":1108,"asiatique</w>":1109,"af":1110,"ker</w>":1111,"na":1112,"ring</w>":1113,"sp":1114,"ill</w>":1115,"char":1116,"publ":1117,"gg":1118,"ique</w>":1119,"ful</w>":1120,"bord</w>":1121,"back</w>":1122,"tres</w>":1123,"tete</w>":1124,"rock</w>":1125,"bus</w>":1126,"imm":1127,"fore":1128,"baby</w>":1129,"etre</w>":1130,"dos</w>":1131,"them</w>":1132,"pantalon</w>":1133,"tree</w>":1134,"nent</w>":1135,"ouv":1136,"chau":1137,"rol":1138,"bicycle</w>":1139,"lee</w>":1140,"outdo":1141,"gris</w>":1142,"voiture</w>":1143,"shirts</w>":1144,"constru":1145,"cks</w>":1146,"sta":1147,"me":1148,"util":1149,"sor":1150,"ess</w>":1151,"jeans</w>":1152,"pool</w>":1153,"Several</w>":1154,"race</w>":1155,"cs</w>":1156,"shing</w>":1157,"bot":1158,"casque</w>":1159,"ges</w>":1160,"ple":1161,"climb":1162,"are":1163,"dar":1164,"ec":1165,"taking</w>":1166,"deur</w>":1167,"nour":1168,"color":1169,"monta":1170,"casquette</w>":1171,"piece</w>":1172,"lit</w>":1173,"vetements</w>":1174,"La</w>":1175,"den</w>":1176,"route</w>":1177,"day</w>":1178,"attra":1179,"doing</w>":1180,"entre</w>":1181,"boat</w>":1182,"ner</w>":1183,"sel":1184,"vent</w>":1185,"mach":1186,"bebe</w>":1187,"nom":1188,"etting</w>":1189,"lee":1190,"gi":1191,"cheval</w>":1192,"vis":1193,"watching</w>":1194,"across</w>":1195,"dirt</w>":1196,"ees</w>":1197,"male</w>":1198,"telephone</w>":1199,"area</w>":1200,"drin":1201,"magas":1202,"ell":1203,"middle</w>":1204,"cha":1205,"emp":1206,"ssant</w>":1207,"cuis":1208,"gros</w>":1209,"mout":1210,"traver":1211,"basket":1212,"bres</w>":1213,"balan":1214,"exterieur</w>":1215,"bateau</w>":1216,"ires</w>":1217,"dark</w>":1218,"stes</w>":1219,"isc":1220,"americ":1221,"pes</w>":1222,"jumps</w>":1223,"prend</w>":1224,"spor":1225,"coat</w>":1226,"grande</w>":1227,"sautant</w>":1228,"hands</w>":1229,"ssem":1230,"scen":1231,"ards</w>":1232,"rouges</w>":1233,"pisc":1234,"arti":1235,"ouvri":1236,"magasin</w>":1237,"piscine</w>":1238,"yant</w>":1239,"pendant</w>":1240,"iting</w>":1241,"vetu":1242,"sable</w>":1243,"obje":1244,"riture</w>":1245,"sol</w>":1246,"tow":1247,"dge</w>":1248,"pain":1249,"performing</w>":1250,"champ</w>":1251,"nourriture</w>":1252,"band</w>":1253,"ines</w>":1254,"cover":1255,"ieu</w>":1256,"who</w>":1257,"eating</w>":1258,"ket</w>":1259,"rem":1260,"ws</w>":1261,"female</w>":1262,"courant</w>":1263,"milieu</w>":1264,"ty</w>":1265,"being</w>":1266,"ages</w>":1267,"motor":1268,"aison</w>":1269,"striped</w>":1270,"sweat":1271,"ath":1272,"cat":1273,"gri":1274,"hai":1275,"guy</w>":1276,"sign</w>":1277,"coo":1278,"using</w>":1279,"ste":1280,"coup</w>":1281,"compet":1282,"Wom":1283,"trois</w>":1284,"photogra":1285,"construction</w>":1286,"he</w>":1287,"fam":1288,"tire</w>":1289,"stic":1290,"america":1291,"store</w>":1292,"under</w>":1293,"horse</w>":1294,"aise</w>":1295,"watch</w>":1296,"Il</w>":1297,"vre</w>":1298,"arbre</w>":1299,"sts</w>":1300,"purple</w>":1301,"mouth</w>":1302,"bow":1303,"passe</w>":1304,"faire</w>":1305,"microphone</w>":1306,"Les</w>":1307,"descen":1308,"manteau</w>":1309,"prom":1310,"Ch":1311,"ur":1312,"parle</w>":1313,"off":1314,"ous</w>":1315,"vie":1316,"sweat</w>":1317,"contre</w>":1318,"cur":1319,"pel":1320,"appar":1321,"haired</w>":1322,"sand</w>":1323,"slee":1324,"chair</w>":1325,"look</w>":1326,"fe</w>":1327,"work</w>":1328,"gil":1329,"enjo":1330,"noirs</w>":1331,"posing</w>":1332,"hock":1333,"windo":1334,"basketball</w>":1335,"ym":1336,"allon":1337,"bras</w>":1338,"ffit":1339,"gh</w>":1340,"ted</w>":1341,"graffit":1342,"sli":1343,"journee</w>":1344,"public</w>":1345,"fl":1346,"deo</w>":1347,"blancs</w>":1348,"reading</w>":1349,"machine</w>":1350,"Young</w>":1351,"sunglasses</w>":1352,"thro":1353,"courent</w>":1354,"brel":1355,"beau":1356,"sen":1357,"tru":1358,"colo":1359,"prof":1360,"visage</w>":1361,"num":1362,"illee</w>":1363,"clothing</w>":1364,"three</w>":1365,"players</w>":1366,"dor":1367,"light</w>":1368,"bee</w>":1369,"vieil</w>":1370,"ain":1371,"dri":1372,"ot</w>":1373,"There</w>":1374,"mountain</w>":1375,"so":1376,"spectat":1377,"covered</w>":1378,"hockey</w>":1379,"toy</w>":1380,"cul":1381,"swimm":1382,"flow":1383,"frap":1384,"ran":1385,"equipe</w>":1386,"ssi":1387,"paper</w>":1388,"blonde</w>":1389,"ars</w>":1390,"rassem":1391,"watches</w>":1392,"pier":1393,"souriant</w>":1394,"cra":1395,"dancing</w>":1396,"during</w>":1397,"climbing</w>":1398,"can</w>":1399,"portable</w>":1400,"bain</w>":1401,"uniform</w>":1402,"sha":1403,"micro</w>":1404,"past</w>":1405,"kids</w>":1406,"discu":1407,"fre":1408,"jet</w>":1409,"fru":1410,"derly</w>":1411,"salle</w>":1412,"bet":1413,"pul":1414,"sourit</w>":1415,"pil":1416,"ence</w>":1417,"stat":1418,"produ":1419,"helmet</w>":1420,"mou":1421,"ered</w>":1422,"again":1423,"bes</w>":1424,"iss":1425,"ms</w>":1426,"para":1427,"outf":1428,"against</w>":1429,"id</w>":1430,"fer":1431,"mains</w>":1432,"geant</w>":1433,"mas":1434,"trou":1435,"inter":1436,"umbrel":1437,"window</w>":1438,"ct</w>":1439,"gli":1440,"rides</w>":1441,"lean":1442,"figu":1443,"team</w>":1444,"elderly</w>":1445,"costumes</w>":1446,"basket</w>":1447,"montagne</w>":1448,"gue</w>":1449,"kin":1450,"set</w>":1451,"sbee</w>":1452,"chemin</w>":1453,"metal</w>":1454,"breu":1455,"ft</w>":1456,"inq</w>":1457,"ales</w>":1458,"moto</w>":1459,"sy</w>":1460,"indi":1461,"floo":1462,"art</w>":1463,"arbres</w>":1464,"thers</w>":1465,"ated</w>":1466,"blo":1467,"tur":1468,"pier</w>":1469,"piste</w>":1470,"nombreu":1471,"ues</w>":1472,"place</w>":1473,"One</w>":1474,"dit":1475,"han":1476,"plast":1477,"conver":1478,"wooden</w>":1479,"trees</w>":1480,"volle":1481,"truck</w>":1482,"about</w>":1483,"fleurs</w>":1484,"hic":1485,"um</w>":1486,"ail</w>":1487,"bar</w>":1488,"bag</w>":1489,"having</w>":1490,"reu":1491,"ope</w>":1492,"agee</w>":1493,"outdoor</w>":1494,"dro":1495,"kit":1496,"sand":1497,"waiting</w>":1498,"cuisine</w>":1499,"ep":1500,"vehic":1501,"roch":1502,"elles</w>":1503,"they</w>":1504,"snowboar":1505,"iers</w>":1506,"eule</w>":1507,"jeu</w>":1508,"tente</w>":1509,"instruments</w>":1510,"statue</w>":1511,"lin":1512,"pant</w>":1513,"very</w>":1514,"cycle</w>":1515,"travaille</w>":1516,"swimming</w>":1517,"dra":1518,"getting</w>":1519,"pli":1520,"apres</w>":1521,"comb":1522,"aire</w>":1523,"led</w>":1524,"tat":1525,"tting</w>":1526,"plein</w>":1527,"americain</w>":1528,"floor</w>":1529,"cell":1530,"lent</w>":1531,"pare</w>":1532,"hoo":1533,"ish</w>":1534,"ssu":1535,"vit":1536,"ante</w>":1537,"workers</w>":1538,"gath":1539,"trying</w>":1540,"ber</w>":1541,"gging</w>":1542,"travers</w>":1543,"cart</w>":1544,"struc":1545,"pluie</w>":1546,"leaning</w>":1547,"gen":1548,"sh</w>":1549,"ive</w>":1550,"debar":1551,"ssing</w>":1552,"foot</w>":1553,"gent</w>":1554,"ked</w>":1555,"busy</w>":1556,"bas</w>":1557,"colorful</w>":1558,"fil":1559,"ka":1560,"parlant</w>":1561,"singing</w>":1562,"book</w>":1563,"bon":1564,"cir":1565,"hill</w>":1566,"tour":1567,"ennent</w>":1568,"ateur</w>":1569,"partic":1570,"tenues</w>":1571,"fence</w>":1572,"Woman</w>":1573,"ey":1574,"gol":1575,"mer</w>":1576,"els</w>":1577,"cross</w>":1578,"jump</w>":1579,"high</w>":1580,"cloth":1581,"musici":1582,"This</w>":1583,"appre":1584,"pra":1585,"tan":1586,"tion</w>":1587,"poin":1588,"diff":1589,"cigar":1590,"skateboar":1591,"vetus</w>":1592,"fal":1593,"iles</w>":1594,"ride</w>":1595,"isant</w>":1596,"nu</w>":1597,"ser</w>":1598,"jouer</w>":1599,"market</w>":1600,"attraper</w>":1601,"kic":1602,"ance</w>":1603,"roun":1604,"shop":1605,"appareil</w>":1606,"rassembl":1607,"Am":1608,"tan</w>":1609,"sto":1610,"laying</w>":1611,"tabl":1612,"joueurs</w>":1613,"prote":1614,"nuit</w>":1615,"Som":1616,"hats</w>":1617,"inside</w>":1618,"ari":1619,"station</w>":1620,"base</w>":1621,"travaillant</w>":1622,"raye</w>":1623,"partici":1624,"Men</w>":1625,"drap":1626,"teur</w>":1627,"eri":1628,"body</w>":1629,"tiennent</w>":1630,"jouet</w>":1631,"ssy</w>":1632,"camion</w>":1633,"ders</w>":1634,"ima":1635,"lau":1636,"ouvriers</w>":1637,"over":1638,"ition</w>":1639,"sons</w>":1640,"bright</w>":1641,"habille</w>":1642,"differ":1643,"gym":1644,"others</w>":1645,"chen</w>":1646,"cap</w>":1647,"plusieurs</w>":1648,"planche</w>":1649,"kitchen</w>":1650,"grassy</w>":1651,"path</w>":1652,"cert</w>":1653,"cellphone</w>":1654,"debardeur</w>":1655,"tom":1656,"als</w>":1657,"beige</w>":1658,"tures</w>":1659,"mul":1660,"elect":1661,"structure</w>":1662,"tier</w>":1663,"livre</w>":1664,"making</w>":1665,"rampe</w>":1666,"mor":1667,"ns</w>":1668,"ings</w>":1669,"backp":1670,"cket</w>":1671,"night</w>":1672,"instrument</w>":1673,"clothes</w>":1674,"ai</w>":1675,"bonn":1676,"pon":1677,"pri":1678,"ordin":1679,"whe":1680,"coun":1681,"gueule</w>":1682,"brick</w>":1683,"polo</w>":1684,"travaillent</w>":1685,"interieur</w>":1686,"rivi":1687,"takes</w>":1688,"surroun":1689,"equip":1690,"umbrella</w>":1691,"riviere</w>":1692,"reau</w>":1693,"river</w>":1694,"track</w>":1695,"blanches</w>":1696,"big</w>":1697,"comm":1698,"bleus</w>":1699,"full</w>":1700,"polic":1701,"violet</w>":1702,"towards</w>":1703,"motorcycle</w>":1704,"outfit</w>":1705,"fli":1706,"ix</w>":1707,"petits</w>":1708,"swing</w>":1709,"uniform":1710,"abo":1711,"ecou":1712,"lem":1713,"mi</w>":1714,"arts</w>":1715,"rocher</w>":1716,"dance</w>":1717,"concert</w>":1718,"prepare</w>":1719,"shop</w>":1720,"musique</w>":1721,"adultes</w>":1722,"roller</w>":1723,"enjoying</w>":1724,"ssures</w>":1725,"ies</w>":1726,"yard</w>":1727,"stone</w>":1728,"acle</w>":1729,"nel</w>":1730,"form</w>":1731,"torse</w>":1732,"cycliste</w>":1733,"cal":1734,"open</w>":1735,"posent</w>":1736,"colored</w>":1737,"cigarette</w>":1738,"min":1739,"ny</w>":1740,"ering</w>":1741,"onne</w>":1742,"ily</w>":1743,"rit</w>":1744,"cours</w>":1745,"train":1746,"gues</w>":1747,"cloture</w>":1748,"fenetre</w>":1749,"figure</w>":1750,"crou":1751,"rodeo</w>":1752,"pas</w>":1753,"ready</w>":1754,"pierre</w>":1755,"ecla":1756,"fin":1757,"lac</w>":1758,"cow":1759,"posant</w>":1760,"cafe</w>":1761,"tran":1762,"competition</w>":1763,"promen":1764,"offic":1765,"fs</w>":1766,"mem":1767,"pom":1768,"val</w>":1769,"xing</w>":1770,"arm</w>":1771,"chaise</w>":1772,"danse</w>":1773,"gaz":1774,"police</w>":1775,"diti":1776,"tank</w>":1777,"ep</w>":1778,"maison</w>":1779,"pont</w>":1780,"ya":1781,"ski</w>":1782,"entou":1783,"obser":1784,"spectateurs</w>":1785,"gee</w>":1786,"house</w>":1787,"ises</w>":1788,"bikin":1789,"utilise</w>":1790,"Cinq</w>":1791,"Five</w>":1792,"brea":1793,"clu":1794,"ones</w>":1795,"lake</w>":1796,"marti":1797,"sweater</w>":1798,"bowling</w>":1799,"shopping</w>":1800,"sac":1801,"anges</w>":1802,"trav":1803,"plus</w>":1804,"chante</w>":1805,"Chil":1806,"smo":1807,"scul":1808,"eng":1809,"eres</w>":1810,"she</w>":1811,"point</w>":1812,"marches</w>":1813,"corde</w>":1814,"prenant</w>":1815,"trick</w>":1816,"stick</w>":1817,"volley":1818,"ster</w>":1819,"sub":1820,"several</w>":1821,"ctif</w>":1822,"painting</w>":1823,"pelouse</w>":1824,"Americ":1825,"above</w>":1826,"zone</w>":1827,"chant</w>":1828,"dess":1829,"carre":1830,"frican</w>":1831,"objectif</w>":1832,"athl":1833,"bonnet</w>":1834,"volleyball</w>":1835,"feu":1836,"run</w>":1837,"olesc":1838,"ess":1839,"pull</w>":1840,"moto":1841,"Quel":1842,"going</w>":1843,"chari":1844,"ce":1845,"pave":1846,"rand":1847,"embra":1848,"pein":1849,"plat":1850,"many</w>":1851,"adolesc":1852,"gilet</w>":1853,"combin":1854,"hard</w>":1855,"onto</w>":1856,"vest</w>":1857,"ich</w>":1858,"glace</w>":1859,"objet</w>":1860,"snowy</w>":1861,"De</w>":1862,"fete</w>":1863,"wave</w>":1864,"worker</w>":1865,"balanco":1866,"ese</w>":1867,"gle</w>":1868,"ites</w>":1869,"oranges</w>":1870,"ace</w>":1871,"pole</w>":1872,"ght":1873,"exam":1874,"head":1875,"metro</w>":1876,"music</w>":1877,"surrounded</w>":1878,"uniforms</w>":1879,"sculp":1880,"even":1881,"seu":1882,"ched</w>":1883,"rope</w>":1884,"etant</w>":1885,"sie":1886,"essi":1887,"like</w>":1888,"ssent</w>":1889,"condu":1890,"crowded</w>":1891,"ber":1892,"den":1893,"net":1894,"ton</w>":1895,"œu":1896,"essa":1897,"montre</w>":1898,"photograp":1899,"balancoire</w>":1900,"netto":1901,"gear</w>":1902,"vag":1903,"stra":1904,"att":1905,"smiles</w>":1906,"baton</w>":1907,"backpack</w>":1908,"th</w>":1909,"chas":1910,"beside</w>":1911,"manger</w>":1912,"frien":1913,"photos</w>":1914,"outdoors</w>":1915,"sport</w>":1916,"allonge</w>":1917,"vague</w>":1918,"dents</w>":1919,"fire</w>":1920,"less</w>":1921,"scar":1922,"atta":1923,"traditi":1924,"parking</w>":1925,"todd":1926,"deser":1927,"adver":1928,"adults</w>":1929,"trouve</w>":1930,"convers":1931,"laugh":1932,"alli":1933,"shes</w>":1934,"dire":1935,"milit":1936,"drinking</w>":1937,"bikini</w>":1938,"sacs</w>":1939,"chariot</w>":1940,"conversation</w>":1941,"ide</w>":1942,"udi":1943,"lots</w>":1944,"tie</w>":1945,"regarder</w>":1946,"escalade</w>":1947,"photograph":1948,"numer":1949,"anim":1950,"recou":1951,"couleur</w>":1952,"tables</w>":1953,"poses</w>":1954,"cal</w>":1955,"new":1956,"bridge</w>":1957,"pieds</w>":1958,"catch</w>":1959,"fruits</w>":1960,"kaya":1961,"bel":1962,"spen":1963,"parlent</w>":1964,"mari":1965,"neig":1966,"amu":1967,"carri":1968,"kid</w>":1969,"foret</w>":1970,"flowers</w>":1971,"file</w>":1972,"har":1973,"tem":1974,"any</w>":1975,"arms</w>":1976,"taine</w>":1977,"pann":1978,"briques</w>":1979,"ign":1980,"prendre</w>":1981,"frisbee</w>":1982,"cana":1983,"spea":1984,"grim":1985,"isson</w>":1986,"gathered</w>":1987,"cowboy</w>":1988,"belle</w>":1989,"event</w>":1990,"fet":1991,"four</w>":1992,"ien":1993,"scoo":1994,"atu":1995,"shoes</w>":1996,"chaussures</w>":1997,"famille</w>":1998,"hanging</w>":1999,"electri":2000,"Six</w>":2001,"away</w>":2002,"ech":2003,"jam":2004,"ty":2005,"ule</w>":2006,"aie</w>":2007,"bul":2008,"pancar":2009,"journ":2010,"graffiti</w>":2011,"ordinateur</w>":2012,"subway</w>":2013,"African</w>":2014,"ban</w>":2015,"go</w>":2016,"gent":2017,"nag":2018,"wel":2019,"ary</w>":2020,"tiful</w>":2021,"ween</w>":2022,"dium</w>":2023,"skir":2024,"colline</w>":2025,"passent</w>":2026,"ticol":2027,"family</w>":2028,"multicol":2029,"iz":2030,"sil":2031,"suspen":2032,"quai</w>":2033,"preparing</w>":2034,"squ":2035,"ballo":2036,"longs</w>":2037,"casques</w>":2038,"mid":2039,"escalier</w>":2040,"object</w>":2041,"steps</w>":2042,"frequ":2043,"toddler</w>":2044,"In":2045,"Many</w>":2046,"avant</w>":2047,"eff":2048,"jau":2049,"ino":2050,"arre":2051,"enneig":2052,"velo":2053,"verre</w>":2054,"vieux</w>":2055,"dies</w>":2056,"fishing</w>":2057,"aged</w>":2058,"compu":2059,"metalli":2060,"crete</w>":2061,"sleeping</w>":2062,"carreaux</w>":2063,"attemp":2064,"jaunes</w>":2065,"bir":2066,"bun":2067,"fol":2068,"py</w>":2069,"sement</w>":2070,"stance</w>":2071,"ast</w>":2072,"plaid</w>":2073,"peint</w>":2074,"cow</w>":2075,"guys</w>":2076,"pente</w>":2077,"fontaine</w>":2078,"pousse</w>":2079,"fountain</w>":2080,"take</w>":2081,"parade</w>":2082,"pied</w>":2083,"surf</w>":2084,"wood</w>":2085,"after</w>":2086,"sort</w>":2087,"gymna":2088,"Children</w>":2089,"American</w>":2090,"canape</w>":2091,"Bo":2092,"bru":2093,"cl":2094,"tless</w>":2095,"marath":2096,"stairs</w>":2097,"beautiful</w>":2098,"combinaison</w>":2099,"enneigee</w>":2100,"bout":2101,"fill":2102,"iere</w>":2103,"ensol":2104,"doig":2105,"ops</w>":2106,"water":2107,"ciel</w>":2108,"ensole":2109,"ach":2110,"bruns</w>":2111,"gnes</w>":2112,"pal":2113,"auche</w>":2114,"noires</w>":2115,"issons</w>":2116,"voir</w>":2117,"adult</w>":2118,"asiatiques</w>":2119,"chairs</w>":2120,"faut":2121,"lum":2122,"ron":2123,"door</w>":2124,"cour</w>":2125,"parmi</w>":2126,"plon":2127,"leve</w>":2128,"asian</w>":2129,"beaucoup</w>":2130,"parapluie</w>":2131,"fauteu":2132,"jer":2133,"pit":2134,"anima":2135,"decor":2136,"visi":2137,"forme</w>":2138,"teen":2139,"tous</w>":2140,"fest":2141,"graffitis</w>":2142,"genou":2143,"animal</w>":2144,"dont</w>":2145,"pati":2146,"rocks</w>":2147,"lage</w>":2148,"shirtless</w>":2149,"skate</w>":2150,"sorte</w>":2151,"selling</w>":2152,"ensoleillee</w>":2153,"fle":2154,"ry</w>":2155,"yen</w>":2156,"ery</w>":2157,"alors</w>":2158,"shou":2159,"does</w>":2160,"ait</w>":2161,"couver":2162,"time</w>":2163,"papier</w>":2164,"vif</w>":2165,"secur":2166,"saut</w>":2167,"bleues</w>":2168,"quelqu</w>":2169,"sunny</w>":2170,"forest</w>":2171,"utilisant</w>":2172,"pract":2173,"travail</w>":2174,"jerse":2175,"cant</w>":2176,"lder</w>":2177,"mea":2178,"setting</w>":2179,"ening</w>":2180,"ato":2181,"aises</w>":2182,"quatre</w>":2183,"glass</w>":2184,"attendant</w>":2185,"slide</w>":2186,"indivi":2187,"cle</w>":2188,"sage</w>":2189,"up":2190,"val":2191,"xim":2192,"yeux</w>":2193,"racing</w>":2194,"peche</w>":2195,"coureu":2196,"sommet</w>":2197,"lance</w>":2198,"phones</w>":2199,"gilets</w>":2200,"gentlem":2201,"get</w>":2202,"hap":2203,"mounta":2204,"see</w>":2205,"chu":2206,"onal</w>":2207,"dansent</w>":2208,"etudi":2209,"posit":2210,"putting</w>":2211,"prin":2212,"corner</w>":2213,"bouche</w>":2214,"drum":2215,"both</w>":2216,"ouvrier</w>":2217,"marathon</w>":2218,"cri":2219,"ceau</w>":2220,"dem":2221,"feu</w>":2222,"get":2223,"ois":2224,"tall</w>":2225,"robes</w>":2226,"loin</w>":2227,"appe":2228,"pushing</w>":2229,"proxim":2230,"barbe</w>":2231,"penche</w>":2232,"cano":2233,"attendent</w>":2234,"microsc":2235,"descend</w>":2236,"throwing</w>":2237,"scarf</w>":2238,"glo":2239,"ke":2240,"pour":2241,"site</w>":2242,"ton":2243,"tram":2244,"list":2245,"chef</w>":2246,"have</w>":2247,"adulte</w>":2248,"attend</w>":2249,"flag</w>":2250,"drink</w>":2251,"view</w>":2252,"beton</w>":2253,"between</w>":2254,"nombreux</w>":2255,"numero</w>":2256,"ff</w>":2257,"he":2258,"kne":2259,"veget":2260,"ili":2261,"lar</w>":2262,"ladies</w>":2263,"part</w>":2264,"pom</w>":2265,"appu":2266,"cyclistes</w>":2267,"vetues</w>":2268,"frapper</w>":2269,"Some</w>":2270,"laughing</w>":2271,"panneau</w>":2272,"genoux</w>":2273,"flu":2274,"fish</w>":2275,"ments</w>":2276,"pis</w>":2277,"sans</w>":2278,"tun":2279,"tas</w>":2280,"toit</w>":2281,"bureau</w>":2282,"hiver</w>":2283,"monte</w>":2284,"clown</w>":2285,"passant</w>":2286,"someone</w>":2287,"nus</w>":2288,"rempl":2289,"professi":2290,"plastique</w>":2291,"golf</w>":2292,"equipment</w>":2293,"computer</w>":2294,"airs</w>":2295,"bed</w>":2296,"fra":2297,"im</w>":2298,"key</w>":2299,"sting</w>":2300,"ands</w>":2301,"couch</w>":2302,"party</w>":2303,"portent</w>":2304,"but</w>":2305,"ley</w>":2306,"bikes</w>":2307,"entee</w>":2308,"try</w>":2309,"uniforme</w>":2310,"pleine</w>":2311,"pilo":2312,"proximite</w>":2313,"ned</w>":2314,"sun</w>":2315,"rela":2316,"lam":2317,"where</w>":2318,"accor":2319,"playground</w>":2320,"sky</w>":2321,"pictures</w>":2322,"ramp</w>":2323,"sweatshirt</w>":2324,"plastic</w>":2325,"scooter</w>":2326,"boute":2327,"tel":2328,"rer</w>":2329,"ates</w>":2330,"which</w>":2331,"trail</w>":2332,"concrete</w>":2333,"distance</w>":2334,"works</w>":2335,"woods</w>":2336,"ecr":2337,"evenement</w>":2338,"due</w>":2339,"rine</w>":2340,"sof":2341,"dansant</w>":2342,"dee</w>":2343,"dor</w>":2344,"dock</w>":2345,"lisant</w>":2346,"ligne</w>":2347,"under":2348,"beard</w>":2349,"essayant</w>":2350,"journal</w>":2351,"Indi":2352,"No":2353,"kar":2354,"mir":2355,"sed</w>":2356,"teurs</w>":2357,"attire</w>":2358,"ems</w>":2359,"defile</w>":2360,"loy":2361,"coupe</w>":2362,"fire":2363,"colli":2364,"jupe</w>":2365,"winter</w>":2366,"spectacle</w>":2367,"cuisin":2368,"rochers</w>":2369,"drapeau</w>":2370,"feuilles</w>":2371,"pancarte</w>":2372,"midair</w>":2373,"net</w>":2374,"pile</w>":2375,"tir":2376,"wr":2377,"was":2378,"cher":2379,"vel</w>":2380,"suits</w>":2381,"mas</w>":2382,"terie</w>":2383,"ski":2384,"reads</w>":2385,"chool</w>":2386,"just</w>":2387,"uniformes</w>":2388,"ggles</w>":2389,"roll":2390,"montagnes</w>":2391,"traverse</w>":2392,"dort</w>":2393,"wheel":2394,"able</w>":2395,"isi":2396,"mere</w>":2397,"ore":2398,"pent</w>":2399,"sty":2400,"row</w>":2401,"pay":2402,"die</w>":2403,"sautent</w>":2404,"maillots</w>":2405,"promene</w>":2406,"number</w>":2407,"skirt</w>":2408,"Grou":2409,"aires</w>":2410,"ki</w>":2411,"tte</w>":2412,"vue</w>":2413,"chaises</w>":2414,"ally</w>":2415,"vement</w>":2416,"coin</w>":2417,"prennent</w>":2418,"clair</w>":2419,"dings</w>":2420,"lined</w>":2421,"news":2422,"frequentee</w>":2423,"metallique</w>":2424,"securite</w>":2425,"microscope</w>":2426,"air":2427,"dding</w>":2428,"ger":2429,"jar":2430,"enne</w>":2431,"stique</w>":2432,"accrou":2433,"verts</w>":2434,"ligh":2435,"bags</w>":2436,"grill</w>":2437,"presen":2438,"mani":2439,"mangeant</w>":2440,"seated</w>":2441,"grosse</w>":2442,"fonces</w>":2443,"toward</w>":2444,"nombreuses</w>":2445,"individu":2446,"tunnel</w>":2447,"Fri":2448,"centre</w>":2449,"sque</w>":2450,"zz":2451,"what</w>":2452,"tapis</w>":2453,"pot</w>":2454,"left</w>":2455,"lons</w>":2456,"itures</w>":2457,"sourient</w>":2458,"lancer</w>":2459,"sauter</w>":2460,"circu":2461,"desert</w>":2462,"velos</w>":2463,"entrain":2464,"repas</w>":2465,"orche":2466,"vests</w>":2467,"box":2468,"near":2469,"legu":2470,"beer</w>":2471,"cutting</w>":2472,"moyen</w>":2473,"biere</w>":2474,"scre":2475,"ream</w>":2476,"quelques</w>":2477,"classe</w>":2478,"chapeaux</w>":2479,"cooking</w>":2480,"epau":2481,"tatou":2482,"motocross</w>":2483,"filled</w>":2484,"fauteuil</w>":2485,"rempli</w>":2486,"Little</w>":2487,"bu</w>":2488,"ren":2489,"vage</w>":2490,"ateau</w>":2491,"eten":2492,"rider</w>":2493,"tor</w>":2494,"cade</w>":2495,"buildings</w>":2496,"escope</w>":2497,"materi":2498,"pulling</w>":2499,"Con":2500,"Per":2501,"cking</w>":2502,"cream</w>":2503,"donne</w>":2504,"nage</w>":2505,"vir":2506,"stom":2507,"etes</w>":2508,"bec":2509,"piet":2510,"piers</w>":2511,"comme</w>":2512,"voitures</w>":2513,"ctions</w>":2514,"ecrit</w>":2515,"rempli":2516,"sentier</w>":2517,"fruit</w>":2518,"sculpture</w>":2519,"ilibre</w>":2520,"Gir":2521,"sca":2522,"wrest":2523,"yer</w>":2524,"arded</w>":2525,"ente</w>":2526,"rees</w>":2527,"all":2528,"rock":2529,"ral</w>":2530,"depu":2531,"box</w>":2532,"bogg":2533,"coff":2534,"tobogg":2535,"crossing</w>":2536,"bran":2537,"brune</w>":2538,"panier</w>":2539,"equilibre</w>":2540,"cliff</w>":2541,"habillee</w>":2542,"nombre</w>":2543,"tatto":2544,"practic":2545,"appears</w>":2546,"canoe</w>":2547,"telescope</w>":2548,"depuis</w>":2549,"toboggan</w>":2550,"edge</w>":2551,"pping</w>":2552,"stre</w>":2553,"deau</w>":2554,"accro":2555,"cake</w>":2556,"isse</w>":2557,"show</w>":2558,"showing</w>":2559,"blonds</w>":2560,"dresses</w>":2561,"mier</w>":2562,"frappe</w>":2563,"glisse</w>":2564,"snowboarder</w>":2565,"entoure</w>":2566,"smoking</w>":2567,"mountains</w>":2568,"Noel</w>":2569,"karate</w>":2570,"Frisbee</w>":2571,"legumes</w>":2572,"Beau":2573,"avi":2574,"do</w>":2575,"fum":2576,"gauche</w>":2577,"ham":2578,"pau":2579,"school</w>":2580,"tball</w>":2581,"ved</w>":2582,"she":2583,"quet</w>":2584,"bub":2585,"appro":2586,"bathing</w>":2587,"swim":2588,"tablier</w>":2589,"ayant</w>":2590,"bai":2591,"gants</w>":2592,"nou":2593,"oper":2594,"ters</w>":2595,"ven</w>":2596,"vres</w>":2597,"inging</w>":2598,"ity</w>":2599,"rail</w>":2600,"right</w>":2601,"aide</w>":2602,"plate</w>":2603,"isent</w>":2604,"bur":2605,"poline</w>":2606,"serv":2607,"performs</w>":2608,"surfer</w>":2609,"Women</w>":2610,"ignant</w>":2611,"jersey</w>":2612,"trampoline</w>":2613,"nearby</w>":2614,"seau</w>":2615,"vari":2616,"asse</w>":2617,"pere</w>":2618,"perform</w>":2619,"make</w>":2620,"buvant</w>":2621,"apron</w>":2622,"proje":2623,"barbu</w>":2624,"chantant</w>":2625,"horses</w>":2626,"touri":2627,"few</w>":2628,"affi":2629,"driving</w>":2630,"randonn":2631,"friends</w>":2632,"carries</w>":2633,"Ne":2634,"cele":2635,"ken</w>":2636,"os</w>":2637,"uses</w>":2638,"wi":2639,"xop":2640,"repar":2641,"lap":2642,"esse</w>":2643,"couleurs</w>":2644,"ballons</w>":2645,"magaz":2646,"hot</w>":2647,"video</w>":2648,"figh":2649,"agees</w>":2650,"cars</w>":2651,"montr":2652,"skateur</w>":2653,"shore</w>":2654,"fond</w>":2655,"leaves</w>":2656,"meme</w>":2657,"employ":2658,"pilote</w>":2659,"paysage</w>":2660,"ctor</w>":2661,"din</w>":2662,"youn":2663,"onnee</w>":2664,"eling</w>":2665,"ical</w>":2666,"parked</w>":2667,"plom":2668,"fro</w>":2669,"cup</w>":2670,"saxop":2671,"voie</w>":2672,"battent</w>":2673,"shot</w>":2674,"obst":2675,"pouss":2676,"surfeur</w>":2677,"boots</w>":2678,"immeu":2679,"bottes</w>":2680,"colores</w>":2681,"painted</w>":2682,"vieille</w>":2683,"flower</w>":2684,"apprete</w>":2685,"skateboarder</w>":2686,"drapeaux</w>":2687,"morceau</w>":2688,"martial</w>":2689,"festi":2690,"position</w>":2691,"men":2692,"inc":2693,"ator</w>":2694,"ations</w>":2695,"leans</w>":2696,"mother</w>":2697,"smile</w>":2698,"longue</w>":2699,"colle":2700,"vendor</w>":2701,"goggles</w>":2702,"habilles</w>":2703,"artiste</w>":2704,"grise</w>":2705,"vehicule</w>":2706,"rocheuse</w>":2707,"eyes</w>":2708,"kayak</w>":2709,"temps</w>":2710,"doigt</w>":2711,"becue</w>":2712,"cement</w>":2713,"ight</w>":2714,"inst":2715,"entes</w>":2716,"super":2717,"home</w>":2718,"roulant</w>":2719,"audi":2720,"vertes</w>":2721,"tage</w>":2722,"poteau</w>":2723,"amis</w>":2724,"mot":2725,"bien</w>":2726,"talks</w>":2727,"barbecue</w>":2728,"dame</w>":2729,"bottle</w>":2730,"traversent</w>":2731,"flying</w>":2732,"produits</w>":2733,"vehicle</w>":2734,"falaise</w>":2735,"different</w>":2736,"ghtly</w>":2737,"drums</w>":2738,"jardin</w>":2739,"Person</w>":2740,"Beaucoup</w>":2741,"dau":2742,"gers</w>":2743,"hit</w>":2744,"lying</w>":2745,"pace</w>":2746,"use</w>":2747,"lad":2748,"bloc":2749,"ols</w>":2750,"pagne</w>":2751,"frica":2752,"jogging</w>":2753,"sports</w>":2754,"masque</w>":2755,"Boy</w>":2756,"rocky</w>":2757,"coffee</w>":2758,"cel":2759,"hou":2760,"jeux</w>":2761,"spla":2762,"tin":2763,"tour</w>":2764,"ining</w>":2765,"refle":2766,"eure</w>":2767,"roses</w>":2768,"case</w>":2769,"paint</w>":2770,"but":2771,"petites</w>":2772,"safet":2773,"coming</w>":2774,"waves</w>":2775,"surface</w>":2776,"swinging</w>":2777,"batiments</w>":2778,"jackets</w>":2779,"juste</w>":2780,"fonce</w>":2781,"flags</w>":2782,"prepares</w>":2783,"preparant</w>":2784,"profit":2785,"snowboardeur</w>":2786,"kicking</w>":2787,"rassemblent</w>":2788,"Some":2789,"Quelqu</w>":2790,"gentleman</w>":2791,"bouteille</w>":2792,"Group</w>":2793,"newspaper</w>":2794,"younger</w>":2795,"safety</w>":2796,"eco":2797,"gy":2798,"iff":2799,"mange</w>":2800,"ant":2801,"capu":2802,"bucket</w>":2803,"bearded</w>":2804,"vier</w>":2805,"fron":2806,"hold</w>":2807,"sale</w>":2808,"compl":2809,"pres":2810,"skating</w>":2811,"gather</w>":2812,"cteur</w>":2813,"tron":2814,"bicycli":2815,"escala":2816,"spectators</w>":2817,"tourne</w>":2818,"martiaux</w>":2819,"peinture</w>":2820,"gloves</w>":2821,"practicing</w>":2822,"ables</w>":2823,"bs</w>":2824,"cleaning</w>":2825,"dou":2826,"donn":2827,"fils</w>":2828,"no</w>":2829,"sn":2830,"tau":2831,"arm":2832,"enou":2833,"this</w>":2834,"there</w>":2835,"onloo":2836,"roof</w>":2837,"las</w>":2838,"blouse</w>":2839,"pee</w>":2840,"parler</w>":2841,"pot":2842,"hone</w>":2843,"courses</w>":2844,"grands</w>":2845,"biker</w>":2846,"vendeur</w>":2847,"plane</w>":2848,"ssion</w>":2849,"droit</w>":2850,"vitrine</w>":2851,"musiciens</w>":2852,"country</w>":2853,"policier</w>":2854,"ature</w>":2855,"bunch</w>":2856,"listening</w>":2857,"ladder</w>":2858,"africa":2859,"gets</w>":2860,"iree</w>":2861,"mets</w>":2862,"wait</w>":2863,"inspe":2864,"items</w>":2865,"staring</w>":2866,"alim":2867,"illage</w>":2868,"elo":2869,"paras":2870,"autom":2871,"blanket</w>":2872,"skier</w>":2873,"chee</w>":2874,"chevaux</w>":2875,"class":2876,"snowboard</w>":2877,"certa":2878,"public":2879,"ectu":2880,"bowl</w>":2881,"skateboarding</w>":2882,"athlete</w>":2883,"Quelques</w>":2884,"type</w>":2885,"afro</w>":2886,"lire</w>":2887,"lawn</w>":2888,"railing</w>":2889,"tir</w>":2890,"tiss":2891,"port</w>":2892,"bull</w>":2893,"cut</w>":2894,"mangent</w>":2895,"desk</w>":2896,"sold":2897,"boule</w>":2898,"bicycles</w>":2899,"chantier</w>":2900,"giving</w>":2901,"empty</w>":2902,"stop</w>":2903,"balloon</w>":2904,"couverture</w>":2905,"meal</w>":2906,"wash":2907,"various</w>":2908,"festival</w>":2909,"audience</w>":2910,"capuche</w>":2911,"Chin":2912,"cai":2913,"cers</w>":2914,"dle</w>":2915,"heu":2916,"iste</w>":2917,"ong":2918,"ork</w>":2919,"orien":2920,"stor":2921,"emon":2922,"roule</w>":2923,"acks</w>":2924,"walk":2925,"comp":2926,"longues</w>":2927,"ctive</w>":2928,"leaps</w>":2929,"signs</w>":2930,"preparent</w>":2931,"rayee</w>":2932,"drinks</w>":2933,"traversant</w>":2934,"balance</w>":2935,"dorm":2936,"parachu":2937,"pavee</w>":2938,"softball</w>":2939,"celebr":2940,"Someone</w>":2941,"onlookers</w>":2942,"Cette</w>":2943,"Ol":2944,"Su":2945,"bant</w>":2946,"cent":2947,"flan":2948,"ouverte</w>":2949,"arri":2950,"ath</w>":2951,"labor":2952,"espace</w>":2953,"pers</w>":2954,"quant</w>":2955,"peu</w>":2956,"lieu</w>":2957,"part":2958,"pian":2959,"skis</w>":2960,"fore</w>":2961,"agenou":2962,"igne</w>":2963,"display</w>":2964,"ceremon":2965,"self</w>":2966,"sliding</w>":2967,"gathering</w>":2968,"filet</w>":2969,"pointing</w>":2970,"flip</w>":2971,"eclabou":2972,"echelle</w>":2973,"vegetables</w>":2974,"collier</w>":2975,"etendue</w>":2976,"Girl</w>":2977,"cts</w>":2978,"gold</w>":2979,"jets</w>":2980,"pet</w>":2981,"wet</w>":2982,"itaire</w>":2983,"euses</w>":2984,"rasse</w>":2985,"rist":2986,"coiff":2987,"ative</w>":2988,"lees</w>":2989,"vient</w>":2990,"streets</w>":2991,"skieur</w>":2992,"premier</w>":2993,"manches</w>":2994,"facing</w>":2995,"class</w>":2996,"canne</w>":2997,"feet</w>":2998,"pelu":2999,"trans":3000,"adolescent</w>":3001,"chasing</w>":3002,"bulles</w>":3003,"effectu":3004,"teenag":3005,"Indian</w>":3006,"tirant</w>":3007,"materiel</w>":3008,"saxophone</w>":3009,"immeuble</w>":3010,"heureu":3011,"avoir</w>":3012,"band":3013,"echar":3014,"gon":3015,"gateau</w>":3016,"mel":3017,"ul":3018,"vy</w>":3019,"wer</w>":3020,"inf":3021,"iner</w>":3022,"allee</w>":3023,"rir</w>":3024,"rient</w>":3025,"rivage</w>":3026,"wedding</w>":3027,"busin":3028,"leas":3029,"before</w>":3030,"stret":3031,"fic</w>":3032,"iller</w>":3033,"brand":3034,"bride</w>":3035,"bandan":3036,"vend</w>":3037,"tries</w>":3038,"helmets</w>":3039,"competing</w>":3040,"descendant</w>":3041,"mask</w>":3042,"pompiers</w>":3043,"platform</w>":3044,"photographe</w>":3045,"speaking</w>":3046,"silver</w>":3047,"bird</w>":3048,"happy</w>":3049,"ecran</w>":3050,"orchestre</w>":3051,"avion</w>":3052,"New</w>":3053,"poussette</w>":3054,"dit</w>":3055,"eg":3056,"fall</w>":3057,"ids</w>":3058,"peu":3059,"rire</w>":3060,"scu":3061,"ye</w>":3062,"inten":3063,"oufla":3064,"chent</w>":3065,"irie</w>":3066,"perfor":3067,"ach</w>":3068,"tal</w>":3069,"poisson</w>":3070,"pag":3071,"cross":3072,"camoufla":3073,"vole</w>":3074,"batterie</w>":3075,"vagues</w>":3076,"pass</w>":3077,"equipes</w>":3078,"salon</w>":3079,"surfing</w>":3080,"huge</w>":3081,"teams</w>":3082,"cyclist</w>":3083,"discutent</w>":3084,"droite</w>":3085,"differentes</w>":3086,"lights</w>":3087,"remplie</w>":3088,"obstacle</w>":3089,"classroom</w>":3090,"piano</w>":3091,"performan":3092,"camouflage</w>":3093,"bit":3094,"cau":3095,"ial</w>":3096,"mom":3097,"oi</w>":3098,"pelle</w>":3099,"tee</w>":3100,"ressem":3101,"rece":3102,"veau</w>":3103,"rapi":3104,"couvert</w>":3105,"tique</w>":3106,"podium</w>":3107,"atique</w>":3108,"pique</w>":3109,"rug":3110,"sombre</w>":3111,"waits</w>":3112,"students</w>":3113,"vendant</w>":3114,"nique</w>":3115,"sings</w>":3116,"surfboard</w>":3117,"hula</w>":3118,"purse</w>":3119,"climbs</w>":3120,"sticks</w>":3121,"allongee</w>":3122,"crav":3123,"image</w>":3124,"break</w>":3125,"club</w>":3126,"traditional</w>":3127,"fighting</w>":3128,"performance</w>":3129,"am</w>":3130,"bers</w>":3131,"bill":3132,"cent</w>":3133,"cinq</w>":3134,"jet":3135,"mall</w>":3136,"antes</w>":3137,"alley</w>":3138,"laisse</w>":3139,"dans":3140,"six</w>":3141,"boissons</w>":3142,"town</w>":3143,"hole</w>":3144,"marcher</w>":3145,"occu":3146,"seen</w>":3147,"four":3148,"sembl":3149,"dry</w>":3150,"kissing</w>":3151,"violette</w>":3152,"chauss":3153,"counter</w>":3154,"commer":3155,"essaie</w>":3156,"direction</w>":3157,"military</w>":3158,"screen</w>":3159,"pause</w>":3160,"present":3161,"Wor":3162,"York</w>":3163,"bon</w>":3164,"bea":3165,"bat</w>":3166,"cee</w>":3167,"sprin":3168,"trun":3169,"stroller</w>":3170,"dev":3171,"degu":3172,"coucher</w>":3173,"terrasse</w>":3174,"same</w>":3175,"profon":3176,"nic</w>":3177,"violon</w>":3178,"swee":3179,"spra":3180,"stair":3181,"attrape</w>":3182,"traverser</w>":3183,"hoop</w>":3184,"observe</w>":3185,"recouverte</w>":3186,"taureau</w>":3187,"cand":3188,"cting</w>":3189,"lly</w>":3190,"lap</w>":3191,"laun":3192,"roul":3193,"females</w>":3194,"dio</w>":3195,"diving</w>":3196,"bag":3197,"colore</w>":3198,"illant</w>":3199,"talk</w>":3200,"cascade</w>":3201,"surplom":3202,"boue</w>":3203,"clients</w>":3204,"musical</w>":3205,"sunset</w>":3206,"throw</w>":3207,"tableau</w>":3208,"animee</w>":3209,"shoulder</w>":3210,"kneeling</w>":3211,"mirro":3212,"writing</w>":3213,"skiing</w>":3214,"affiche</w>":3215,"gym</w>":3216,"walkway</w>":3217,"comptoir</w>":3218,"moment</w>":3219,"haut":3220,"land</w>":3221,"land":3222,"ners</w>":3223,"ots</w>":3224,"van</w>":3225,"wea":3226,"argent</w>":3227,"enth":3228,"boisson</w>":3229,"acou":3230,"runner</w>":3231,"waving</w>":3232,"section</w>":3233,"bare":3234,"miro":3235,"soldi":3236,"escalator</w>":3237,"volley</w>":3238,"policiers</w>":3239,"mariage</w>":3240,"attempting</w>":3241,"oiseau</w>":3242,"ristmas</w>":3243,"rugby</w>":3244,"ced</w>":3245,"hum":3246,"py":3247,"tasse</w>":3248,"wear</w>":3249,"inclu":3250,"shi":3251,"ici":3252,"uns</w>":3253,"mal</w>":3254,"made</w>":3255,"cones</w>":3256,"entre":3257,"ciment</w>":3258,"cordes</w>":3259,"violin</w>":3260,"chauve</w>":3261,"outfits</w>":3262,"blowing</w>":3263,"mariee</w>":3264,"clou":3265,"etudiants</w>":3266,"isier</w>":3267,"style</w>":3268,"accroup":3269,"montrant</w>":3270,"peluche</w>":3271,"echarpe</w>":3272,"cravate</w>":3273,"Do":3274,"brun":3275,"goo":3276,"ored</w>":3277,"pea":3278,"slo":3279,"ang</w>":3280,"arbit":3281,"erlea":3282,"ital</w>":3283,"chino":3284,"eusement</w>":3285,"atte":3286,"illees</w>":3287,"defen":3288,"gare</w>":3289,"couche</w>":3290,"bald</w>":3291,"joueuse</w>":3292,"pige":3293,"five</w>":3294,"mob":3295,"says</w>":3296,"close</w>":3297,"objets</w>":3298,"fully</w>":3299,"struction</w>":3300,"father</w>":3301,"fabri":3302,"rolling</w>":3303,"ellement</w>":3304,"rassemblees</w>":3305,"overlooking</w>":3306,"promenant</w>":3307,"officer</w>":3308,"randonnee</w>":3309,"adolescents</w>":3310,"adverti":3311,"well</w>":3312,"vision</w>":3313,"roller":3314,"bubbles</w>":3315,"business</w>":3316,"mirror</w>":3317,"ais</w>":3318,"fting</w>":3319,"lard</w>":3320,"ole</w>":3321,"wag":3322,"ombre</w>":3323,"star":3324,"stun":3325,"stic</w>":3326,"laire</w>":3327,"rousse</w>":3328,"shed</w>":3329,"ely</w>":3330,"sion</w>":3331,"sieur</w>":3332,"action</w>":3333,"ist</w>":3334,"tuy":3335,"cuir</w>":3336,"check":3337,"fixing</w>":3338,"foulard</w>":3339,"surfe</w>":3340,"hur":3341,"affron":3342,"navi":3343,"urban</w>":3344,"ference</w>":3345,"gymn":3346,"tombe</w>":3347,"denti":3348,"traditionn":3349,"recouvert</w>":3350,"electrique</w>":3351,"balloons</w>":3352,"coureur</w>":3353,"coureurs</w>":3354,"Gu":3355,"joc":3356,"jette</w>":3357,"end</w>":3358,"enter":3359,"represen":3360,"alone</w>":3361,"vee</w>":3362,"sup":3363,"door":3364,"quer</w>":3365,"life</w>":3366,"jouets</w>":3367,"maqu":3368,"padd":3369,"leg</w>":3370,"moti":3371,"souff":3372,"collar</w>":3373,"swim</w>":3374,"trou</w>":3375,"faces</w>":3376,"brightly</w>":3377,"passage</w>":3378,"helping</w>":3379,"leather</w>":3380,"foreground</w>":3381,"artist</w>":3382,"umbrellas</w>":3383,"musicians</w>":3384,"conduit</w>":3385,"Construction</w>":3386,"miroir</w>":3387,"BM":3388,"Wh":3389,"cy</w>":3390,"cette</w>":3391,"ient</w>":3392,"mer":3393,"meat</w>":3394,"vin</w>":3395,"ense":3396,"chat</w>":3397,"allow</w>":3398,"vestes</w>":3399,"rain":3400,"aslee":3401,"garage</w>":3402,"ici</w>":3403,"acti":3404,"couper</w>":3405,"verse</w>":3406,"taille</w>":3407,"paroi</w>":3408,"legs</w>":3409,"conta":3410,"chemisier</w>":3411,"exer":3412,"monsieur</w>":3413,"passer":3414,"patin":3415,"poussi":3416,"flot":3417,"volant</w>":3418,"med":3419,"giant</w>":3420,"enjoy</w>":3421,"wheel</w>":3422,"membres</w>":3423,"headphones</w>":3424,"electric</w>":3425,"achet":3426,"magazine</w>":3427,"instal":3428,"motard</w>":3429,"asleep</w>":3430,"On</w>":3431,"brou":3432,"bam":3433,"ege</w>":3434,"ian</w>":3435,"issant</w>":3436,"ow</w>":3437,"ples</w>":3438,"range</w>":3439,"squ</w>":3440,"tar":3441,"va</w>":3442,"ward</w>":3443,"enor":3444,"chur":3445,"stade</w>":3446,"local</w>":3447,"balls</w>":3448,"parti":3449,"wears</w>":3450,"makes</w>":3451,"caval":3452,"contro":3453,"tube</w>":3454,"among</w>":3455,"custom":3456,"mud</w>":3457,"swings</w>":3458,"shovel":3459,"fume</w>":3460,"passing</w>":3461,"grocer":3462,"plantes</w>":3463,"stadium</w>":3464,"office</w>":3465,"pierres</w>":3466,"discutant</w>":3467,"sandals</w>":3468,"hood</w>":3469,"falling</w>":3470,"ecouteurs</w>":3471,"promenade</w>":3472,"suspendu</w>":3473,"washing</w>":3474,"arbitre</w>":3475,"wagon</w>":3476,"Mar":3477,"aff":3478,"bent</w>":3479,"eant</w>":3480,"held</w>":3481,"jol":3482,"sy":3483,"tex":3484,"erman</w>":3485,"them":3486,"alig":3487,"deon</w>":3488,"blement</w>":3489,"rier</w>":3490,"with":3491,"locks</w>":3492,"quo":3493,"quettes</w>":3494,"toys</w>":3495,"sser</w>":3496,"courts</w>":3497,"sav":3498,"manege</w>":3499,"hiking</w>":3500,"cloth</w>":3501,"shoo":3502,"heads</w>":3503,"jusqu</w>":3504,"goal</w>":3505,"remor":3506,"sandales</w>":3507,"prairie</w>":3508,"participat":3509,"officers</w>":3510,"examine</w>":3511,"friend</w>":3512,"multicolored</w>":3513,"accordi":3514,"doorway</w>":3515,"Mi":3516,"aqu":3517,"egli":3518,"ffic</w>":3519,"mb</w>":3520,"mit":3521,"pir":3522,"vac":3523,"endroit</w>":3524,"erie</w>":3525,"reun":3526,"reuni":3527,"deaux</w>":3528,"boit</w>":3529,"coupant</w>":3530,"tax":3531,"tape</w>":3532,"ungle</w>":3533,"mais</w>":3534,"pays</w>":3535,"conference</w>":3536,"vide</w>":3537,"vive</w>":3538,"viande</w>":3539,"dread":3540,"dien</w>":3541,"ami</w>":3542,"rum</w>":3543,"ruelle</w>":3544,"ghter</w>":3545,"saire</w>":3546,"excit":3547,"cami":3548,"guitari":3549,"cial</w>":3550,"batons</w>":3551,"reaching</w>":3552,"eleph":3553,"picking</w>":3554,"habillees</w>":3555,"dirty</w>":3556,"throws</w>":3557,"drawing</w>":3558,"appreci":3559,"protection</w>":3560,"photographer</w>":3561,"photographi":3562,"teenage</w>":3563,"atoire</w>":3564,"epaules</w>":3565,"laptop</w>":3566,"leash</w>":3567,"presentation</w>":3568,"profonde</w>":3569,"barefoot</w>":3570,"church</w>":3571,"accordion</w>":3572,"eglise</w>":3573,"In</w>":3574,"Mo":3575,"cep":3576,"dom":3577,"drum</w>":3578,"fan":3579,"gam":3580,"ieres</w>":3581,"lers</w>":3582,"males</w>":3583,"ness</w>":3584,"tops</w>":3585,"us</w>":3586,"zer</w>":3587,"enta":3588,"recu":3589,"rais":3590,"dancers</w>":3591,"shallow</w>":3592,"quarti":3593,"courir</w>":3594,"traffic</w>":3595,"cone</w>":3596,"new</w>":3597,"isee</w>":3598,"ument</w>":3599,"contra":3600,"outes</w>":3601,"digging</w>":3602,"move</w>":3603,"exper":3604,"souriante</w>":3605,"passes</w>":3606,"poussant</w>":3607,"figures</w>":3608,"kaki</w>":3609,"pond</w>":3610,"seul</w>":3611,"below</w>":3612,"jambe</w>":3613,"follo":3614,"accordeon</w>":3615,"accroche</w>":3616,"daughter</w>":3617,"oriental</w>":3618,"effectuant</w>":3619,"gonfla":3620,"peut</w>":3621,"dreadlocks</w>":3622,"quartier</w>":3623,"Bla":3624,"cat</w>":3625,"cle":3626,"cran":3627,"ear":3628,"ect":3629,"fans</w>":3630,"hal":3631,"kha":3632,"lders</w>":3633,"nant</w>":3634,"pair</w>":3635,"tack":3636,"wn":3637,"ze</w>":3638,"raquette</w>":3639,"deten":3640,"blou":3641,"signe</w>":3642,"bol</w>":3643,"bow</w>":3644,"doors</w>":3645,"aisons</w>":3646,"liqu":3647,"iser</w>":3648,"bath":3649,"mode":3650,"moving</w>":3651,"cartes</w>":3652,"rues</w>":3653,"hair":3654,"barriere</w>":3655,"batte</w>":3656,"sauve":3657,"shovel</w>":3658,"teet":3659,"rapped</w>":3660,"cercle</w>":3661,"attenti":3662,"hugging</w>":3663,"stache</w>":3664,"gives</w>":3665,"catches</w>":3666,"catching</w>":3667,"mouvement</w>":3668,"circul":3669,"kick</w>":3670,"strade</w>":3671,"silhou":3672,"atop</w>":3673,"upside</w>":3674,"relaxing</w>":3675,"surplombant</w>":3676,"brunette</w>":3677,"tuyau</w>":3678,"representant</w>":3679,"remorque</w>":3680,"El":3681,"Jo":3682,"Vo":3683,"celle</w>":3684,"fun</w>":3685,"fts</w>":3686,"ket":3687,"na</w>":3688,"nat":3689,"sled</w>":3690,"teaux</w>":3691,"toutes</w>":3692,"wich</w>":3693,"ird</w>":3694,"deep</w>":3695,"lone</w>":3696,"garden</w>":3697,"balu":3698,"divers</w>":3699,"ambu":3700,"ruiss":3701,"haw":3702,"shows</w>":3703,"resting</w>":3704,"onnette</w>":3705,"climb</w>":3706,"leaping</w>":3707,"Christmas</w>":3708,"sleeps</w>":3709,"intersection</w>":3710,"golden</w>":3711,"points</w>":3712,"participant</w>":3713,"flies</w>":3714,"paved</w>":3715,"multicolore</w>":3716,"virage</w>":3717,"tattoo</w>":3718,"tronc</w>":3719,"donnant</w>":3720,"Chinese</w>":3721,"caisse</w>":3722,"laboratoire</w>":3723,"sweeping</w>":3724,"stunt</w>":3725,"BMX</w>":3726,"reunis</w>":3727,"sauvetage</w>":3728,"boun":3729,"dune</w>":3730,"dol":3731,"ecu":3732,"fer</w>":3733,"gate</w>":3734,"ivent</w>":3735,"ka</w>":3736,"ming</w>":3737,"wards</w>":3738,"indre</w>":3739,"repose</w>":3740,"chal":3741,"ster":3742,"stro":3743,"eue</w>":3744,"lab</w>":3745,"destri":3746,"bly</w>":3747,"aud":3748,"boite</w>":3749,"coats</w>":3750,"hose</w>":3751,"plants</w>":3752,"pup":3753,"fique</w>":3754,"coll":3755,"baller":3756,"bordee</w>":3757,"mate</w>":3758,"singer</w>":3759,"diner</w>":3760,"travailler</w>":3761,"touche</w>":3762,"coloree</w>":3763,"rangee</w>":3764,"pulls</w>":3765,"turn</w>":3766,"conversing</w>":3767,"sandwich</w>":3768,"combat</w>":3769,"hoodie</w>":3770,"sieste</w>":3771,"photograph</w>":3772,"grimpe</w>":3773,"nageant</w>":3774,"patio</w>":3775,"professionn":3776,"scaff":3777,"parachute</w>":3778,"ceremonie</w>":3779,"jetee</w>":3780,"sprink":3781,"trunks</w>":3782,"accroupi</w>":3783,"exerc":3784,"enorme</w>":3785,"teeth</w>":3786,"da</w>":3787,"em</w>":3788,"gun</w>":3789,"mat</w>":3790,"og":3791,"sco":3792,"wet":3793,"anci":3794,"inant</w>":3795,"ret</w>":3796,"onnel</w>":3797,"ori":3798,"orn":3799,"sure</w>":3800,"rail":3801,"round</w>":3802,"riant</w>":3803,"ried</w>":3804,"doc":3805,"balcon":3806,"how</w>":3807,"cadre</w>":3808,"nez</w>":3809,"neath</w>":3810,"chefs</w>":3811,"formal</w>":3812,"agent</w>":3813,"vetement</w>":3814,"mural</w>":3815,"grin":3816,"rub":3817,"cold</w>":3818,"closed</w>":3819,"studio</w>":3820,"batteur</w>":3821,"facade</w>":3822,"shoe</w>":3823,"pins</w>":3824,"trom":3825,"vendre</w>":3826,"spee":3827,"escaliers</w>":3828,"produit</w>":3829,"electron":3830,"promenent</w>":3831,"athlet":3832,"echaf":3833,"effect":3834,"cricket</w>":3835,"underneath</w>":3836,"epaule</w>":3837,"wrestling</w>":3838,"fumant</w>":3839,"splashing</w>":3840,"profitant</w>":3841,"semblent</w>":3842,"balustrade</w>":3843,"ruisseau</w>":3844,"effectue</w>":3845,"Jap":3846,"Kids</w>":3847,"La":3848,"eth":3849,"gal":3850,"hall</w>":3851,"kil":3852,"pt</w>":3853,"test</w>":3854,"tetes</w>":3855,"artic":3856,"endor":3857,"itting</w>":3858,"alls</w>":3859,"ateurs</w>":3860,"dances</w>":3861,"dec":3862,"etran":3863,"loa":3864,"quad</w>":3865,"accom":3866,"oppo":3867,"jour</w>":3868,"portra":3869,"cab":3870,"ump":3871,"atiques</w>":3872,"waters</w>":3873,"entree</w>":3874,"campagne</w>":3875,"barre":3876,"stuff":3877,"solitaire</w>":3878,"cycles</w>":3879,"nival</w>":3880,"cane</w>":3881,"hauts</w>":3882,"dinner</w>":3883,"television</w>":3884,"magni":3885,"acrobati":3886,"selves</w>":3887,"curly</w>":3888,"soit</w>":3889,"soiree</w>":3890,"block</w>":3891,"entouree</w>":3892,"nettoie</w>":3893,"nettoyant</w>":3894,"gymnase</w>":3895,"shoulders</w>":3896,"rollers</w>":3897,"pietons</w>":3898,"project</w>":3899,"tissu</w>":3900,"Old</w>":3901,"heureux</w>":3902,"roulettes</w>":3903,"including</w>":3904,"motifs</w>":3905,"themselves</w>":3906,"without</w>":3907,"Black</w>":3908,"endormi</w>":3909,"AT":3910,"Small</w>":3911,"crying</w>":3912,"cray":3913,"don":3914,"gob":3915,"hill":3916,"iques</w>":3917,"ieure</w>":3918,"keu":3919,"mes":3920,"pai":3921,"pit</w>":3922,"seat</w>":3923,"ure</w>":3924,"vic":3925,"ing":3926,"ousi":3927,"arro":3928,"enneige</w>":3929,"ores</w>":3930,"sters</w>":3931,"racket</w>":3932,"roue</w>":3933,"roux</w>":3934,"roulent</w>":3935,"gardien</w>":3936,"plaque</w>":3937,"opposing</w>":3938,"taken</w>":3939,"makeu":3940,"cage</w>":3941,"pap":3942,"paille</w>":3943,"appla":3944,"skin":3945,"fight</w>":3946,"agit":3947,"carnival</w>":3948,"grill":3949,"projet</w>":3950,"prati":3951,"hiker</w>":3952,"chemises</w>":3953,"brosse</w>":3954,"barre</w>":3955,"voit</w>":3956,"mix":3957,"picnic</w>":3958,"ignent</w>":3959,"matching</w>":3960,"mettant</w>":3961,"passag":3962,"baskets</w>":3963,"servi":3964,"poubelle</w>":3965,"tricks</w>":3966,"wooded</w>":3967,"joy":3968,"descendent</w>":3969,"colorees</w>":3970,"pulled</w>":3971,"produce</w>":3972,"bondee</w>":3973,"circle</w>":3974,"ecoute</w>":3975,"dessous</w>":3976,"straw</w>":3977,"attache</w>":3978,"doigts</w>":3979,"lumiere</w>":3980,"lumieres</w>":3981,"individuals</w>":3982,"hammer</w>":3983,"bicyclist</w>":3984,"escaladant</w>":3985,"alimenta":3986,"crosswalk</w>":3987,"commercial</w>":3988,"Workers</w>":3989,"enthousi":3990,"chinois</w>":3991,"taxi</w>":3992,"Voici</w>":3993,"echafaud":3994,"gobel":3995,"makeup</w>":3996,"Bu":3997,"Col":3998,"Dans</w>":3999,"Po":4000,"aer":4001,"deurs</w>":4002,"fle</w>":4003,"igh":4004,"jungle</w>":4005,"knee</w>":4006,"let</w>":4007,"non</w>":4008,"pun":4009,"peau</w>":4010,"pell":4011,"rent</w>":4012,"so</w>":4013,"infl":4014,"reli":4015,"aller</w>":4016,"emer":4017,"aiss":4018,"peignant</w>":4019,"balaie</w>":4020,"trash</w>":4021,"cou</w>":4022,"nose</w>":4023,"tenir</w>":4024,"pain</w>":4025,"cheerlea":4026,"moder":4027,"dures</w>":4028,"sewing</w>":4029,"surve":4030,"vely</w>":4031,"tel</w>":4032,"mettre</w>":4033,"performer</w>":4034,"books</w>":4035,"pantalons</w>":4036,"cyclists</w>":4037,"ggling</w>":4038,"utilisent</w>":4039,"covering</w>":4040,"discussion</w>":4041,"glissant</w>":4042,"participent</w>":4043,"equipement</w>":4044,"members</w>":4045,"cein":4046,"siege</w>":4047,"beret</w>":4048,"militaire</w>":4049,"jambes</w>":4050,"attempts</w>":4051,"gymnaste</w>":4052,"parasol</w>":4053,"soldats</w>":4054,"infant</w>":4055,"pigeons</w>":4056,"gonflable</w>":4057,"stuffed</w>":4058,"Fi":4059,"ceur</w>":4060,"fas":4061,"ience</w>":4062,"let":4063,"lic":4064,"loun":4065,"mself</w>":4066,"sar":4067,"sea":4068,"tail</w>":4069,"village</w>":4070,"ena</w>":4071,"rest</w>":4072,"third</w>":4073,"ond":4074,"oned</w>":4075,"org":4076,"atter":4077,"lays</w>":4078,"etre":4079,"opening</w>":4080,"balcon</w>":4081,"lift</w>":4082,"marteau</w>":4083,"cape</w>":4084,"neck</w>":4085,"These</w>":4086,"bever":4087,"pushes</w>":4088,"marchand":4089,"work":4090,"manteaux</w>":4091,"himself</w>":4092,"chevau":4093,"montant</w>":4094,"montent</w>":4095,"derby</w>":4096,"battant</w>":4097,"facon</w>":4098,"mid</w>":4099,"corps</w>":4100,"lunch</w>":4101,"tory</w>":4102,"lancant</w>":4103,"lanceur</w>":4104,"goes</w>":4105,"help</w>":4106,"haute</w>":4107,"booth</w>":4108,"chain</w>":4109,"chaine</w>":4110,"gril</w>":4111,"flor":4112,"driver</w>":4113,"fresque</w>":4114,"bonde</w>":4115,"ecoutant</w>":4116,"pompier</w>":4117,"chases</w>":4118,"adverse</w>":4119,"square</w>":4120,"brush</w>":4121,"randonneur</w>":4122,"randonneurs</w>":4123,"ecole</w>":4124,"eloigne</w>":4125,"center</w>":4126,"hautes</w>":4127,"slope</w>":4128,"jockey</w>":4129,"guitariste</w>":4130,"crane</w>":4131,"destrians</w>":4132,"balcony</w>":4133,"articles</w>":4134,"Ar":4135,"Ce</w>":4136,"Mu":4137,"ba</w>":4138,"cen":4139,"dal":4140,"ddy</w>":4141,"fly</w>":4142,"identi":4143,"od":4144,"pout":4145,"wed</w>":4146,"za</w>":4147,"ane</w>":4148,"inform":4149,"indoor</w>":4150,"alpin":4151,"lass":4152,"rase</w>":4153,"dancer</w>":4154,"depla":4155,"deck</w>":4156,"bli":4157,"etang</w>":4158,"log</w>":4159,"plat</w>":4160,"queue</w>":4161,"tabou":4162,"lies</w>":4163,"livres</w>":4164,"parents</w>":4165,"parcours</w>":4166,"partie</w>":4167,"not</w>":4168,"outils</w>":4169,"tub</w>":4170,"puts</w>":4171,"pipe</w>":4172,"ruban</w>":4173,"sourire</w>":4174,"pris</w>":4175,"monde</w>":4176,"montic":4177,"camping</w>":4178,"voile</w>":4179,"gestu":4180,"vache</w>":4181,"fur":4182,"passer</w>":4183,"admir":4184,"pieces</w>":4185,"horiz":4186,"rambar":4187,"nap</w>":4188,"ggage</w>":4189,"ouvre</w>":4190,"americaine</w>":4191,"rassembles</w>":4192,"kind</w>":4193,"sandy</w>":4194,"linge</w>":4195,"prise</w>":4196,"travaux</w>":4197,"animaux</w>":4198,"speaks</w>":4199,"oiseaux</w>":4200,"appuie</w>":4201,"boxes</w>":4202,"reparer</w>":4203,"supermarche</w>":4204,"button</w>":4205,"partment</w>":4206,"device</w>":4207,"staircase</w>":4208,"bagages</w>":4209,"traditionnels</w>":4210,"quoise</w>":4211,"20":4212,"cte</w>":4213,"gou":4214,"gant</w>":4215,"jo</w>":4216,"kn":4217,"key":4218,"len</w>":4219,"mo</w>":4220,"san":4221,"zed</w>":4222,"ordures</w>":4223,"atting</w>":4224,"boats</w>":4225,"down":4226,"perche</w>":4227,"coulo":4228,"tamb":4229,"parta":4230,"poster</w>":4231,"tentent</w>":4232,"forest":4233,"levant</w>":4234,"pizz":4235,"dure</w>":4236,"crosse</w>":4237,"luge</w>":4238,"voy":4239,"cted</w>":4240,"langue</w>":4241,"chantent</w>":4242,"toute</w>":4243,"medi":4244,"machines</w>":4245,"enjoys</w>":4246,"profite</w>":4247,"drives</w>":4248,"shaking</w>":4249,"eye</w>":4250,"fallen</w>":4251,"overalls</w>":4252,"break":4253,"athletes</w>":4254,"embrasse</w>":4255,"plateau</w>":4256,"ized</w>":4257,"arret</w>":4258,"gentlemen</w>":4259,"flute</w>":4260,"tatouage</w>":4261,"scape</w>":4262,"sheet</w>":4263,"swims</w>":4264,"blocks</w>":4265,"ecoss":4266,"certains</w>":4267,"brandit</w>":4268,"ressembl":4269,"gymnast</w>":4270,"Guy</w>":4271,"grocery</w>":4272,"elephant</w>":4273,"circulation</w>":4274,"wetsuit</w>":4275,"12</w>":4276,"Ces</w>":4277,"Lond":4278,"Older</w>":4279,"aine</w>":4280,"cles</w>":4281,"dins</w>":4282,"hop":4283,"id":4284,"isie":4285,"neu":4286,"nice</w>":4287,"rin":4288,"seule</w>":4289,"tons</w>":4290,"wrapped</w>":4291,"repa":4292,"orig":4293,"stle</w>":4294,"stati":4295,"alie</w>":4296,"row":4297,"dejeu":4298,"eting</w>":4299,"audit":4300,"garb</w>":4301,"couvre</w>":4302,"tracks</w>":4303,"marie</w>":4304,"porch</w>":4305,"plant</w>":4306,"nees</w>":4307,"assant</w>":4308,"ledge</w>":4309,"contre":4310,"puddle</w>":4311,"pie</w>":4312,"stream</w>":4313,"fix":4314,"carton</w>":4315,"marching</w>":4316,"pret</w>":4317,"scien":4318,"hikers</w>":4319,"vol</w>":4320,"gees</w>":4321,"troisie":4322,"ign</w>":4323,"trottin":4324,"headed</w>":4325,"heavy</w>":4326,"pluies</w>":4327,"kio":4328,"salto</w>":4329,"salop":4330,"publique</w>":4331,"chase</w>":4332,"sporti":4333,"steep</w>":4334,"americains</w>":4335,"urbain</w>":4336,"frappant</w>":4337,"shaving</w>":4338,"parapluies</w>":4339,"hangs</w>":4340,"kicks</w>":4341,"mini":4342,"fingers</w>":4343,"militaires</w>":4344,"jama</w>":4345,"birds</w>":4346,"waterfall</w>":4347,"pitcher</w>":4348,"keys</w>":4349,"pouring</w>":4350,"cherche</w>":4351,"pieton</w>":4352,"approa":4353,"nouveau</w>":4354,"bicyclists</w>":4355,"eclaboussures</w>":4356,"teenagers</w>":4357,"laundry</w>":4358,"cloudy</w>":4359,"affrontent</w>":4360,"passerelle</w>":4361,"cavalier</w>":4362,"customers</w>":4363,"monticule</w>":4364,"troisieme</w>":4365,"Cet</w>":4366,"Here</w>":4367,"TT</w>":4368,"VTT</w>":4369,"aeri":4370,"bbl":4371,"ek</w>":4372,"fun":4373,"fair</w>":4374,"fast</w>":4375,"nam":4376,"nature</w>":4377,"pped</w>":4378,"rons</w>":4379,"ures</w>":4380,"ares</w>":4381,"arena</w>":4382,"envir":4383,"recor":4384,"refer":4385,"ort</w>":4386,"ater</w>":4387,"atable</w>":4388,"rack</w>":4389,"olding</w>":4390,"simil":4391,"balai</w>":4392,"tirer</w>":4393,"cotes</w>":4394,"pois</w>":4395,"post</w>":4396,"hot":4397,"cadeau</w>":4398,"pave</w>":4399,"papers</w>":4400,"put</w>":4401,"termin":4402,"chez</w>":4403,"checking</w>":4404,"moves</w>":4405,"comment</w>":4406,"souleve</w>":4407,"colors</w>":4408,"sea</w>":4409,"sees</w>":4410,"chevauche</w>":4411,"illon</w>":4412,"exhi":4413,"reaches</w>":4414,"backyard</w>":4415,"corn</w>":4416,"unique</w>":4417,"poles</w>":4418,"tech":4419,"borne</w>":4420,"string</w>":4421,"pattes</w>":4422,"chanteur</w>":4423,"creu":4424,"foreign</w>":4425,"ympi":4426,"musicien</w>":4427,"protective</w>":4428,"motos</w>":4429,"evening</w>":4430,"denim</w>":4431,"œur</w>":4432,"attached</w>":4433,"amusent</w>":4434,"arrete</w>":4435,"clear</w>":4436,"palm</w>":4437,"patient</w>":4438,"oreilles</w>":4439,"airplane</w>":4440,"touristes</w>":4441,"dormant</w>":4442,"teenager</w>":4443,"ulti":4444,"ship</w>":4445,"paddling</w>":4446,"shoveling</w>":4447,"shooting</w>":4448,"khaki</w>":4449,"ambulant</w>":4450,"stern</w>":4451,"opposite</w>":4452,"fashi":4453,"scienti":4454,"salopette</w>":4455,"En</w>":4456,"Mc":4457,"Wal":4458,"av":4459,"ado":4460,"dement</w>":4461,"meu":4462,"mound</w>":4463,"pre</w>":4464,"sai":4465,"scou":4466,"spar":4467,"spi":4468,"swor":4469,"wns</w>":4470,"arene</w>":4471,"arrow</w>":4472,"entra":4473,"cheur</w>":4474,"allu":4475,"sui":4476,"eman</w>":4477,"rac":4478,"raft</w>":4479,"danser</w>":4480,"deco":4481,"debr":4482,"boire</w>":4483,"boxing</w>":4484,"quent</w>":4485,"acci":4486,"oppon":4487,"couverte</w>":4488,"balles</w>":4489,"verres</w>":4490,"tracteur</w>":4491,"tentant</w>":4492,"cad":4493,"vie</w>":4494,"diver":4495,"court":4496,"murs</w>":4497,"saw</w>":4498,"luggage</w>":4499,"jump":4500,"camp":4501,"barri":4502,"football":4503,"eleves</w>":4504,"niver":4505,"jupes</w>":4506,"foncee</w>":4507,"fenced</w>":4508,"flaque</w>":4509,"rayures</w>":4510,"chambre</w>":4511,"balancing</w>":4512,"Che":4513,"curb</w>":4514,"windows</w>":4515,"fleu":4516,"rance</w>":4517,"ssure</w>":4518,"laugh</w>":4519,"differents</w>":4520,"ordinateurs</w>":4521,"bread</w>":4522,"pavement</w>":4523,"ghters</w>":4524,"directions</w>":4525,"amusant</w>":4526,"skirts</w>":4527,"demon":4528,"tongue</w>":4529,"wheelchair</w>":4530,"branches</w>":4531,"soldat</w>":4532,"humide</w>":4533,"pyjama</w>":4534,"atteindre</w>":4535,"medical</w>":4536,"clean</w>":4537,"attentivement</w>":4538,"serviette</w>":4539,"alimentaire</w>":4540,"inflatable</w>":4541,"rambarde</w>":4542,"couloir</w>":4543,"debris</w>":4544,"Eu":4545,"Sant":4546,"ab":4547,"eats</w>":4548,"ears</w>":4549,"flight</w>":4550,"ifi":4551,"kis":4552,"nap":4553,"ot":4554,"plo":4555,"pear</w>":4556,"spo":4557,"sap":4558,"ti</w>":4559,"wil":4560,"wine</w>":4561,"andes</w>":4562,"erole</w>":4563,"radeau</w>":4564,"shade</w>":4565,"boivent</w>":4566,"aient</w>":4567,"percu":4568,"groupes</w>":4569,"balleurs</w>":4570,"tractor</w>":4571,"cool</w>":4572,"tom</w>":4573,"married</w>":4574,"walls</w>":4575,"tend</w>":4576,"tenu</w>":4577,"hotel</w>":4578,"neck":4579,"buying</w>":4580,"fort</w>":4581,"assiette</w>":4582,"high":4583,"basse</w>":4584,"exposition</w>":4585,"monument</w>":4586,"talons</w>":4587,"bron":4588,"skates</w>":4589,"tropic":4590,"jamas</w>":4591,"footballeurs</w>":4592,"clavier</w>":4593,"juggling</w>":4594,"serre</w>":4595,"lanter":4596,"tricycle</w>":4597,"goalie</w>":4598,"salu":4599,"floating</w>":4600,"phon":4601,"trem":4602,"surfant</w>":4603,"nuag":4604,"space</w>":4605,"bottom</w>":4606,"sell</w>":4607,"motorcycles</w>":4608,"step</w>":4609,"descendre</w>":4610,"shado":4611,"fresh</w>":4612,"pily</w>":4613,"trouvent</w>":4614,"skateboards</w>":4615,"rassemblement</w>":4616,"stool</w>":4617,"eclairee</w>":4618,"Child</w>":4619,"conduisant</w>":4620,"deserte</w>":4621,"laughs</w>":4622,"pancartes</w>":4623,"professional</w>":4624,"frame</w>":4625,"manife":4626,"swimsuit</w>":4627,"baig":4628,"nouvel":4629,"employes</w>":4630,"transportant</w>":4631,"bandana</w>":4632,"bandanna</w>":4633,"danseuse</w>":4634,"chaussettes</w>":4635,"mobile</w>":4636,"fabric</w>":4637,"activit":4638,"container</w>":4639,"syn":4640,"recuper":4641,"silhouette</w>":4642,"portrait</w>":4643,"skinned</w>":4644,"joyeusement</w>":4645,"floral</w>":4646,"tabouret</w>":4647,"keyboard</w>":4648,"courtyard</w>":4649,"Santa</w>":4650,"kiss</w>":4651,"Par":4652,"St":4653,"ain</w>":4654,"bb":4655,"dun":4656,"eit":4657,"ela":4658,"jon":4659,"lines</w>":4660,"ow":4661,"spot":4662,"ules</w>":4663,"yog":4664,"ino</w>":4665,"inee</w>":4666,"reci":4667,"repare</w>":4668,"chac":4669,"chop":4670,"chers</w>":4671,"onal":4672,"allem":4673,"lace</w>":4674,"riders</w>":4675,"sized</w>":4676,"garba":4677,"quar":4678,"pee":4679,"coudre</w>":4680,"balade</w>":4681,"ties</w>":4682,"tile</w>":4683,"travel":4684,"live</w>":4685,"tools</w>":4686,"wel</w>":4687,"market":4688,"casu":4689,"pajamas</w>":4690,"neon</w>":4691,"asses</w>":4692,"assem":4693,"bucking</w>":4694,"lever</w>":4695,"vives</w>":4696,"guard</w>":4697,"outh</w>":4698,"appear</w>":4699,"distri":4700,"gravi":4701,"cheering</w>":4702,"agri":4703,"theque</w>":4704,"lut":4705,"illent</w>":4706,"expre":4707,"glaces</w>":4708,"shown</w>":4709,"read</w>":4710,"backwards</w>":4711,"bouquet</w>":4712,"herbes</w>":4713,"ood</w>":4714,"just":4715,"sert</w>":4716,"socks</w>":4717,"chant":4718,"boards</w>":4719,"Asiatiques</w>":4720,"attention</w>":4721,"Sept</w>":4722,"touching</w>":4723,"fee":4724,"american</w>":4725,"artif":4726,"fermes</w>":4727,"musician</w>":4728,"appretant</w>":4729,"participe</w>":4730,"feuille</w>":4731,"seup</w>":4732,"carriage</w>":4733,"suspended</w>":4734,"frequente</w>":4735,"jerseys</w>":4736,"happily</w>":4737,"heels</w>":4738,"manifest":4739,"magazines</w>":4740,"publicite</w>":4741,"agenouille</w>":4742,"stretched</w>":4743,"chaussee</w>":4744,"spray</w>":4745,"acoustique</w>":4746,"acoustic</w>":4747,"soldier</w>":4748,"soldiers</w>":4749,"Dog</w>":4750,"goods</w>":4751,"hurdle</w>":4752,"enterta":4753,"poussiere</w>":4754,"camionnette</w>":4755,"gamin</w>":4756,"Joh":4757,"natation</w>":4758,"professionnelle</w>":4759,"scaffolding</w>":4760,"railroad</w>":4761,"trompet":4762,"aerop":4763,"religi":4764,"organ":4765,"chevauchant</w>":4766,"trottinette</w>":4767,"footballeur</w>":4768,"demonstr":4769,"either</w>":4770,"yoga</w>":4771,"garbage</w>":4772,"marketplace</w>":4773,"Bro":4774,"En":4775,"Le":4776,"Male</w>":4777,"Te":4778,"Tex":4779,"aw":4780,"bass":4781,"ceaux</w>":4782,"est":4783,"far":4784,"fir":4785,"if</w>":4786,"iment</w>":4787,"lement</w>":4788,"my</w>":4789,"med</w>":4790,"anese</w>":4791,"ina</w>":4792,"invol":4793,"ench</w>":4794,"rebord</w>":4795,"retour":4796,"ths</w>":4797,"thum":4798,"rout":4799,"femin":4800,"plaza</w>":4801,"pees</w>":4802,"act</w>":4803,"acting</w>":4804,"couples</w>":4805,"coequi":4806,"living</w>":4807,"towel</w>":4808,"possi":4809,"poissons</w>":4810,"foin</w>":4811,"pale</w>":4812,"nequ":4813,"assor":4814,"ump</w>":4815,"buissons</w>":4816,"lev":4817,"levent</w>":4818,"amp</w>":4819,"gradins</w>":4820,"grandes</w>":4821,"rural</w>":4822,"dus</w>":4823,"ways</w>":4824,"mannequ":4825,"exic":4826,"monter</w>":4827,"camp</w>":4828,"brillant</w>":4829,"glaci":4830,"hay</w>":4831,"corn":4832,"corpul":4833,"choir</w>":4834,"ckets</w>":4835,"banjo</w>":4836,"borde</w>":4837,"onnement</w>":4838,"patter":4839,"serving</w>":4840,"groom</w>":4841,"dining</w>":4842,"Seven</w>":4843,"team":4844,"spon":4845,"attractions</w>":4846,"visages</w>":4847,"basketteur</w>":4848,"sporting</w>":4849,"paints</w>":4850,"urba":4851,"sleeved</w>":4852,"discuter</w>":4853,"mouille</w>":4854,"hooded</w>":4855,"pointe</w>":4856,"stove</w>":4857,"backpacks</w>":4858,"fini":4859,"embrassant</w>":4860,"animals</w>":4861,"harna":4862,"welding</w>":4863,"visible</w>":4864,"kneels</w>":4865,"underwater</w>":4866,"tirent</w>":4867,"airport</w>":4868,"circuit</w>":4869,"sheep</w>":4870,"bubble</w>":4871,"operation</w>":4872,"service</w>":4873,"incen":4874,"blocs</w>":4875,"profitent</w>":4876,"caught</w>":4877,"ressemble</w>":4878,"landscape</w>":4879,"advertisement</w>":4880,"White</w>":4881,"jolie</w>":4882,"raised</w>":4883,"blouson</w>":4884,"hawk</w>":4885,"echafaudage</w>":4886,"lasso</w>":4887,"horizon</w>":4888,"sapin</w>":4889,"aeroport</w>":4890,"Donal":4891,"German</w>":4892,"Pere</w>":4893,"Stre":4894,"dy":4895,"eme</w>":4896,"imag":4897,"jap":4898,"ky</w>":4899,"ld</w>":4900,"lit":4901,"lat":4902,"oed</w>":4903,"pack":4904,"sk</w>":4905,"spre":4906,"tw":4907,"tly</w>":4908,"ani":4909,"ombrel":4910,"red":4911,"regi":4912,"things</w>":4913,"sty</w>":4914,"stea":4915,"stop":4916,"alle":4917,"vest":4918,"lay</w>":4919,"rame</w>":4920,"del":4921,"aidant</w>":4922,"ices</w>":4923,"quit":4924,"quel</w>":4925,"verdo":4926,"tails</w>":4927,"coa":4928,"ssee</w>":4929,"marine</w>":4930,"legg":4931,"beg":4932,"visit":4933,"tery</w>":4934,"grap":4935,"gravel</w>":4936,"fighters</w>":4937,"bijou":4938,"ffy</w>":4939,"runners</w>":4940,"print</w>":4941,"seems</w>":4942,"money</w>":4943,"casian</w>":4944,"casquettes</w>":4945,"student</w>":4946,"bateaux</w>":4947,"elev":4948,"choses</w>":4949,"trum":4950,"pick</w>":4951,"bank</w>":4952,"bancs</w>":4953,"polka</w>":4954,"night":4955,"stra</w>":4956,"bending</w>":4957,"dirige</w>":4958,"telephon":4959,"climber</w>":4960,"allonges</w>":4961,"thrown</w>":4962,"shaped</w>":4963,"indienne</w>":4964,"turban</w>":4965,"turquoise</w>":4966,"store":4967,"tomber</w>":4968,"eclaire</w>":4969,"examining</w>":4970,"berger</w>":4971,"nettoyer</w>":4972,"amusement</w>":4973,"multicolores</w>":4974,"brushing</w>":4975,"decorated</w>":4976,"tongs</w>":4977,"appuye</w>":4978,"fluo</w>":4979,"frai":4980,"bouteilles</w>":4981,"individus</w>":4982,"operating</w>":4983,"employe</w>":4984,"reflechi":4985,"aliments</w>":4986,"automne</w>":4987,"brandissant</w>":4988,"danseurs</w>":4989,"peace</w>":4990,"rollerbla":4991,"checkered</w>":4992,"affaires</w>":4993,"participating</w>":4994,"half</w>":4995,"docum":4996,"athletic</w>":4997,"kilt</w>":4998,"grilling</w>":4999}